node {
  name: "global_step"
  op: "Variable"
  attr {
    key: "_output_shapes"
    value {
      list {
        shape {
        }
      }
    }
  }
  attr {
    key: "container"
    value {
      s: ""
    }
  }
  attr {
    key: "dtype"
    value {
      type: DT_INT64
    }
  }
  attr {
    key: "shape"
    value {
      shape {
      }
    }
  }
  attr {
    key: "shared_name"
    value {
      s: ""
    }
  }
}
node {
  name: "global_step/Initializer/zeros"
  op: "Const"
  attr {
    key: "_class"
    value {
      list {
        s: "loc:@global_step"
      }
    }
  }
  attr {
    key: "_output_shapes"
    value {
      list {
        shape {
        }
      }
    }
  }
  attr {
    key: "dtype"
    value {
      type: DT_INT64
    }
  }
  attr {
    key: "value"
    value {
      tensor {
        dtype: DT_INT64
        tensor_shape {
        }
        int64_val: 0
      }
    }
  }
}
node {
  name: "global_step/Assign"
  op: "Assign"
  input: "global_step"
  input: "global_step/Initializer/zeros"
  attr {
    key: "T"
    value {
      type: DT_INT64
    }
  }
  attr {
    key: "_class"
    value {
      list {
        s: "loc:@global_step"
      }
    }
  }
  attr {
    key: "_output_shapes"
    value {
      list {
        shape {
        }
      }
    }
  }
  attr {
    key: "use_locking"
    value {
      b: true
    }
  }
  attr {
    key: "validate_shape"
    value {
      b: true
    }
  }
}
node {
  name: "global_step/read"
  op: "Identity"
  input: "global_step"
  attr {
    key: "T"
    value {
      type: DT_INT64
    }
  }
  attr {
    key: "_class"
    value {
      list {
        s: "loc:@global_step"
      }
    }
  }
  attr {
    key: "_output_shapes"
    value {
      list {
        shape {
        }
      }
    }
  }
}
node {
  name: "Const"
  op: "Const"
  attr {
    key: "_output_shapes"
    value {
      list {
        shape {
          dim {
            size: 3402
          }
        }
      }
    }
  }
  attr {
    key: "dtype"
    value {
      type: DT_FLOAT
    }
  }
  attr {
    key: "value"
    value {
      tensor {
        dtype: DT_FLOAT
        tensor_shape {
          dim {
            size: 3402
          }
        }
        tensor_content: "\000\000\000\000\000\000@@\000\000\200@\000\000\200?\000\000\000@\000\000@@\000\000\000@\000\000\000\000\000\000\000@\000\000\200@\000\000\200?\000\000@@\000\000\200?\000\000\000\000\000\000@@\000\000\000@\000\000\200?\000\000\200?\000\000@@\000\000\000@\000\000\200?\000\000\000@\000\000\200@\000\000\200@\000\000\000@\000\000@@\000\000\000@\000\000@@\000\000@@\000\000\340@\000\000@@\000\000@@\000\000\200?\000\000@@\000\000\200@\000\000\200?\000\000\000@\000\000\200?\000\000\000\000\000\000\000@\000\000\000@\000\000\000@\000\000\000\000\000\000\200@\000\000\200?\000\000\000\000\000\000\200?\000\000\000@\000\000\000A\000\000\000\000\000\000\000@\000\000\000@\000\000\000@\000\000\000\000\000\000\000\000\000\000\000@\000\000\000@\000\000@@\000\000@@\000\000@@\000\000\000\000\000\000@@\000\000\000@\000\000\000A\000\000@@\000\000\000@\000\000\000\000\000\000@@\000\000\000\000\000\000\000\000\000\000\000\000\000\000@@\000\000\200?\000\000\000\000\000\000\000@\000\000\000@\000\000@@\000\000\200@\000\000\000@\000\000\000\000\000\000\000\000\000\000\200@\000\000\000@\000\000\200?\000\000\200?\000\000\000\000\000\000\000@\000\000\240@\000\000\200?\000\000\000@\000\000\200?\000\000@@\000\000\000\000\000\000\240@\000\000\000\000\000\000\200?\000\000\000@\000\000@@\000\000\000@\000\000@@\000\000\000\000\000\000@@\000\000\200@\000\000\000@\000\000\000@\000\000\000\000\000\000\000@\000\000\200?\000\000@@\000\000\000@\000\000\000@\000\000\300@\000\000\000@\000\000\000@\000\000@@\000\000\000@\000\000@@\000\000\000\000\000\000\200?\000\000@@\000\000\000@\000\000\000@\000\000@@\000\000@@\000\000\300@\000\000@@\000\000\200@\000\000\000@\000\000\000@\000\000\000@\000\000@@\000\000@@\000\000\200?\000\000\000@\000\000\200?\000\000@@\000\000\000@\000\000\200?\000\000\200?\000\000\200?\000\000\200?\000\000\000@\000\000\000@\000\000\000@\000\000@@\000\000\200?\000\000\000@\000\000\200?\000\000\000@\000\000@@\000\000\200?\000\000\200@\000\000\200?\000\000\200?\000\000\200@\000\000\000\000\000\000\000\000\000\000@@\000\000\200?\000\000\000\000\000\000@@\000\000\200?\000\000\000\000\000\000\000@\000\000\000@\000\000\000\000\000\000\000@\000\000\200?\000\000\200?\000\000\000@\000\000\000\000\000\000\000\000\000\000\000@\000\000\200@\000\000@@\000\000\000@\000\000\200?\000\000\200?\000\000\200?\000\000@@\000\000\000@\000\000\000\000\000\000\000@\000\000\200?\000\000@@\000\000@@\000\000@@\000\000\000@\000\000@@\000\000@@\000\000\000@\000\000\000@\000\000\000@\000\000@@\000\000\000@\000\000\000\000\000\000@@\000\000\340@\000\000@@\000\000\000\000\000\000\200?\000\000\200?\000\000@@\000\000\000@\000\000\200?\000\000\000@\000\000\000@\000\000@@\000\000\000@\000\000\000@\000\000\000@\000\000\000@\000\000\200?\000\000\000@\000\000\000@\000\000@@\000\000@@\000\000\000\000\000\000\000@\000\000\200?\000\000@@\000\000\000@\000\000\000\000\000\000\240@\000\000\000@\000\000\000@\000\000\000@\000\000\000\000\000\000@@\000\000\200?\000\000@@\000\000@@\000\000\000@\000\000\200?\000\000\000\000\000\000\200?\000\000\200@\000\000\200?\000\000@@\000\000\000\000\000\000@@\000\000\200?\000\000@@\000\000@@\000\000\200?\000\000\000@\000\000\300@\000\000@@\000\000@@\000\000\200?\000\000\000\000\000\000\200?\000\000\000@\000\000\200?\000\000@@\000\000\000@\000\000\000@\000\000\200?\000\000\200?\000\000@@\000\000\000@\000\000\200@\000\000@@\000\000\200@\000\000\200?\000\000@@\000\000\000@\000\000\000@\000\000\000@\000\000\000@\000\000\000\000\000\000\200?\000\000\000\000\000\000@@\000\000@@\000\000\000\000\000\000\000@\000\000\200@\000\000\000@\000\000\000@\000\000\200@\000\000\200?\000\000\200?\000\000@@\000\000\000\000\000\000\000\000\000\000\000@\000\000\200?\000\000@@\000\000@@\000\000\000@\000\000@@\000\000@@\000\000\000\000\000\000\000\000\000\000\240@\000\000@@\000\000@@\000\000\000\000\000\000\000@\000\000\200?\000\000\200?\000\000\200?\000\000\000@\000\000\200?\000\000\000@\000\000@@\000\000\200@\000\000\240@\000\000\200?\000\000@@\000\000\200?\000\000@@\000\000\200@\000\000\200?\000\000@@\000\000\000@\000\000\200?\000\000\200?\000\000\200@\000\000\000@\000\000\200?\000\000\000@\000\000\000@\000\000\200@\000\000\200@\000\000\000@\000\000\000@\000\000\200?\000\000@@\000\000\240@\000\000@@\000\000\000@\000\000\000\000\000\000\000@\000\000\200?\000\000\000@\000\000\000@\000\000@@\000\000\200?\000\000\200?\000\000@@\000\000@@\000\000\000@\000\000@@\000\000\200?\000\000\000\000\000\000\000@\000\000\200?\000\000\000@\000\000\200@\000\000\200?\000\000\000@\000\000@@\000\000\000@\000\000@@\000\000\000@\000\000\000@\000\000\200?\000\000\000@\000\000\000@\000\000\000@\000\000\000@\000\000\200?\000\000\000@\000\000\200?\000\000\200@\000\000\200?\000\000\000@\000\000\000@\000\000\000@\000\000\000@\000\000\000@\000\000\200?\000\000\000@\000\000\000\000\000\000\200?\000\000@@\000\000\000\000\000\000\000@\000\000@@\000\000\200?\000\000\200@\000\000\000@\000\000\000@\000\000@@\000\000\000@\000\000\000@\000\000\000@\000\000\000@\000\000\000\000\000\000\200?\000\000\200?\000\000\200?\000\000\000@\000\000@@\000\000\000@\000\000\200@\000\000\000@\000\000\000@\000\000\000\000\000\000\200?\000\000\000\000\000\000\000@\000\000\200?\000\000\200@\000\000@@\000\000\200?\000\000\000\000\000\000\000\000\000\000\200?\000\000\200?\000\000\200?\000\000\000@\000\000@@\000\000\200@\000\000\000@\000\000@@\000\000\000@\000\000\000\000\000\000@@\000\000\000@\000\000\000\000\000\000\200?\000\000\200?\000\000@@\000\000\300@\000\000\000@\000\000\000@\000\000\000@\000\000\000@\000\000\000@\000\000\000@\000\000\240@\000\000\000@\000\000\200@\000\000\000\000\000\000\000@\000\000@@\000\000\200?\000\000\000@\000\000\000\000\000\000\000@\000\000\000@\000\000\200?\000\000\000@\000\000\000\000\000\000@@\000\000@@\000\000\000@\000\000@@\000\000@@\000\000\000@\000\000\300@\000\000\000@\000\000@@\000\000\000@\000\000@@\000\000\000\000\000\000\200?\000\000\200@\000\000\200?\000\000\200@\000\000\000@\000\000\200?\000\000@@\000\000\000\000\000\000\200@\000\000\000@\000\000\000@\000\000\000@\000\000\000@\000\000\000@\000\000\000\000\000\000@@\000\000\200?\000\000@@\000\000@@\000\000\200?\000\000\200?\000\000@@\000\000\200?\000\000\200?\000\000\000@\000\000\200?\000\000\200@\000\000@@\000\000\000@\000\000\200?\000\000\000@\000\000\200?\000\000\200?\000\000\200?\000\000\200@\000\000\200@\000\000@@\000\000\200@\000\000\000\000\000\000\000@\000\000\000@\000\000\240@\000\000@@\000\000\200?\000\000\000@\000\000\200?\000\000\000@\000\000\000\000\000\000\200?\000\000@@\000\000@@\000\000\000\000\000\000\000@\000\000\000@\000\000\000\000\000\000\200?\000\000@@\000\000@@\000\000\000\000\000\000\200@\000\000\000\000\000\000\200?\000\000\000\000\000\000\200?\000\000\200?\000\000\000@\000\000\200?\000\000\000\000\000\000\000@\000\000\000\000\000\000\200?\000\000\000\000\000\000\000@\000\000\200?\000\000\200@\000\000@@\000\000\000@\000\000@@\000\000\200?\000\000\000@\000\000@@\000\000\240@\000\000\200?\000\000\000@\000\000\200?\000\000\000@\000\000\200?\000\000@@\000\000\000@\000\000\000@\000\000@@\000\000\200?\000\000\000@\000\000\000@\000\000@@\000\000\000@\000\000\200?\000\000\000@\000\000@@\000\000@@\000\000\000@\000\000\000\000\000\000\000@\000\000@@\000\000@@\000\000\000\000\000\000\200?\000\000\000@\000\000\000@\000\000@@\000\000\200?\000\000\200?\000\000@@\000\000@@\000\000\000@\000\000@@\000\000\000@\000\000\200?\000\000\200?\000\000\000\000\000\000\200?\000\000\000@\000\000\000@\000\000\200@\000\000@@\000\000\000@\000\000\200?\000\000\000\000\000\000\000@\000\000\200?\000\000\000@\000\000\000\000\000\000@@\000\000\200@\000\000\000@\000\000@@\000\000\000@\000\000@@\000\000\200?\000\000\240@\000\000\000@\000\000\000@\000\000\200@\000\000\000\000\000\000\000@\000\000\200@\000\000\200?\000\000\000@\000\000\000@\000\000@@\000\000\200@\000\000\200?\000\000\200?\000\000\000\000\000\000\200?\000\000\000@\000\000\000@\000\000\000@\000\000\000@\000\000@@\000\000\000\000\000\000\000@\000\000\200?\000\000\000@\000\000\300@\000\000\300@\000\000\000\000\000\000\200@\000\000\200?\000\000\000@\000\000\000@\000\000\000@\000\000\200?\000\000\200?\000\000\200?\000\000\000\000\000\000\000@\000\000\000@\000\000@@\000\000\000@\000\000@@\000\000\000\000\000\000\200@\000\000\000@\000\000\240@\000\000\240@\000\000\000@\000\000\200?\000\000\000@\000\000\200?\000\000\200?\000\000\000\000\000\000\000\000\000\000\200@\000\000\000@\000\000\000\000\000\000\000@\000\000@@\000\000\000\000\000\000\000@\000\000@@\000\000\000@\000\000@@\000\000\000@\000\000@@\000\000\200?\000\000\000\000\000\000\000@\000\000\200?\000\000\200?\000\000@@\000\000\200@\000\000\000\000\000\000\000@\000\000@@\000\000\200?\000\000\200?\000\000@@\000\000\000@\000\000\000\000\000\000@@\000\000\000@\000\000\000@\000\000@@\000\000\000@\000\000\200?\000\000\000@\000\000\200?\000\000\000@\000\000@@\000\000\000\000\000\000\000\000\000\000\200?\000\000\000\000\000\000\000@\000\000\200?\000\000\200?\000\000\200?\000\000\000@\000\000\000@\000\000\200@\000\000\200?\000\000@@\000\000\200?\000\000\000@\000\000\200?\000\000@@\000\000@@\000\000\240@\000\000\000\000\000\000\000@\000\000\200@\000\000@@\000\000\000@\000\000\000\000\000\000\200?\000\000@@\000\000\200@\000\000@@\000\000\000@\000\000\000@\000\000\000\000\000\000\000@\000\000\200@\000\000\000@\000\000\000@\000\000@@\000\000\000@\000\000\200?\000\000\240@\000\000\000\000\000\000\200?\000\000\000@\000\000\000@\000\000\240@\000\000\240@\000\000\000@\000\000\000@\000\000\200?\000\000\300@\000\000\000\000\000\000\000@\000\000\200?\000\000\200?\000\000\000@\000\000\000@\000\000\200?\000\000@@\000\000\000@\000\000\000@\000\000\000@\000\000@@\000\000\000\000\000\000\000\000\000\000\000@\000\000\200?\000\000\000@\000\000\200?\000\000@@\000\000\200?\000\000\340@\000\000@@\000\000\000@\000\000\200@\000\000\000@\000\000\000\000\000\000\200?\000\000\200?\000\000\000@\000\000\020A\000\000\000@\000\000@@\000\000\000@\000\000\240@\000\000\000@\000\000\200?\000\000\000@\000\000\000@\000\000\000\000\000\000@@\000\000@@\000\000\200?\000\000@@\000\000@@\000\000\000@\000\000\300@\000\000\000@\000\000\000@\000\000\000@\000\000@@\000\000\000@\000\000\000@\000\000\200?\000\000@@\000\000\200?\000\000@@\000\000\200?\000\000\000@\000\000@@\000\000\000@\000\000@@\000\000\000@\000\000@@\000\000\200?\000\000\000\000\000\000\000@\000\000\000@\000\000\000@\000\000\200?\000\000\200?\000\000\000\000\000\000\000@\000\000\000@\000\000@@\000\000\000@\000\000\000@\000\000\200?\000\000\200?\000\000\200?\000\000@@\000\000@@\000\000\000@\000\000\240@\000\000\000@\000\000\200?\000\000\000@\000\000\200?\000\000\000\000\000\000\000@\000\000@@\000\000\000@\000\000\000@\000\000\200@\000\000\200?\000\000\200?\000\000\000@\000\000\000@\000\000\000\000\000\000\000@\000\000\240@\000\000@@\000\000\200?\000\000\000\000\000\000\000@\000\000\000@\000\000\200?\000\000\200@\000\000\000\000\000\000\200?\000\000\000\000\000\000\200?\000\000\000@\000\000\000@\000\000\000\000\000\000\200?\000\000\000\000\000\000@@\000\000@@\000\000\000@\000\000\000\000\000\000\200?\000\000@@\000\000\000@\000\000\200?\000\000\000\000\000\000\000\000\000\000\000\000\000\000\000@\000\000\000\000\000\000\200@\000\000\000@\000\000\200?\000\000@@\000\000@@\000\000@@\000\000@@\000\000\000@\000\000\200?\000\000\000@\000\000@@\000\000\300@\000\000\200?\000\000@@\000\000\000\000\000\000\000@\000\000\000@\000\000\240@\000\000\200@\000\000@@\000\000\000@\000\000@@\000\000\000\000\000\000\200?\000\000\000@\000\000\000@\000\000\000@\000\000\000@\000\000\200?\000\000\000@\000\000\000\000\000\000\000@\000\000\200?\000\000@@\000\000\200@\000\000\200?\000\000\000@\000\000\200@\000\000\240@\000\000\000\000\000\000\200?\000\000@@\000\000@@\000\000@@\000\000@@\000\000\000@\000\000\000\000\000\000\000@\000\000@@\000\000\000@\000\000@@\000\000@@\000\000@@\000\000\000@\000\000\200?\000\000@@\000\000@@\000\000@@\000\000@@\000\000\000@\000\000\000@\000\000\200?\000\000@@\000\000@@\000\000\200?\000\000\200?\000\000\000@\000\000\200?\000\000\200?\000\000\000@\000\000\000\000\000\000\200?\000\000\000@\000\000\000\000\000\000\000\000\000\000\200?\000\000\000@\000\000\000@\000\000\200?\000\000\200?\000\000\000@\000\000@@\000\000\000@\000\000\200@\000\000\000\000\000\000\000@\000\000\000@\000\000\000@\000\000\000@\000\000\200?\000\000\200@\000\000\000\000\000\000\000@\000\000\200?\000\000\300@\000\000@@\000\000\000\000\000\000\000\000\000\000\000@\000\000@@\000\000\200?\000\000\200?\000\000\200@\000\000\000@\000\000\000\000\000\000\000A\000\000@@\000\000\200?\000\000\000@\000\000\000@\000\000\200?\000\000\200@\000\000\000@\000\000\200?\000\000\000@\000\000@@\000\000@@\000\000\000@\000\000\000@\000\000\200@\000\000\000@\000\000\200?\000\000\200?\000\000\000@\000\000\200?\000\000\200@\000\000\000\000\000\000\200?\000\000\020A\000\000\200@\000\000\000@\000\000@@\000\000@@\000\000\200?\000\000\000@\000\000\000\000\000\000\000\000\000\000\200?\000\000\000@\000\000@@\000\000\200@\000\000\000@\000\000\200?\000\000\000@\000\000\200?\000\000\200?\000\000@@\000\000\200@\000\000\000@\000\000@@\000\000@@\000\000\000@\000\000@@\000\000\200?\000\000@@\000\000\000\000\000\000\000\000\000\000\200@\000\000\200@\000\000\000\000\000\000\200@\000\000\200@\000\000\200?\000\000\200?\000\000@@\000\000@@\000\000\200?\000\000@@\000\000\200?\000\000\000\000\000\000\000\000\000\000\200?\000\000\000@\000\000\200?\000\000\000@\000\000\000@\000\000\000\000\000\000\000\000\000\000\000@\000\000\000\000\000\000\000\000\000\000@@\000\000@@\000\000\200?\000\000\000@\000\000\000@\000\000@@\000\000@@\000\000\000@\000\000\000\000\000\000\200?\000\000\000@\000\000\200@\000\000@@\000\000@@\000\000\000@\000\000\200?\000\000\000@\000\000\000@\000\000\200@\000\000\000@\000\000\340@\000\000@@\000\000\200?\000\000\200@\000\000\200?\000\000\000@\000\000\000@\000\000\000\000\000\000\200?\000\000\200?\000\000\000\000\000\000@@\000\000\000@\000\000\000@\000\000\000@\000\000\000@\000\000\000@\000\000\000\000\000\000\200@\000\000\000@\000\000\200?\000\000@@\000\000\200?\000\000\200?\000\000\000@\000\000\200?\000\000\000\000\000\000\000@\000\000@@\000\000\200?\000\000\000@\000\000\000@\000\000\000\000\000\000\000@\000\000\200?\000\000\000@\000\000@@\000\000@@\000\000\000@\000\000\200?\000\000\000\000\000\000\200@\000\000\000@\000\000\200?\000\000\000\000\000\000\200?\000\000\200?\000\000\200?\000\000\000@\000\000\000\000\000\000\000\000\000\000\000@\000\000\000\000\000\000\000@\000\000\200?\000\000@@\000\000\000\000\000\000\000@\000\000\000@\000\000\200?\000\000\000@\000\000\200?\000\000\000@\000\000@@\000\000\200@\000\000\000\000\000\000\200?\000\000\000\000\000\000\000\000\000\000@@\000\000@@\000\000\200?\000\000\000@\000\000\000@\000\000\000\000\000\000\000@\000\000@@\000\000\200@\000\000\200?\000\000\000@\000\000\200@\000\000\200?\000\000@@\000\000@@\000\000@@\000\000\000@\000\000\000@\000\000\200@\000\000@@\000\000@@\000\000\000@\000\000\000\000\000\000\000@\000\000\000@\000\000\000@\000\000\240@\000\000\000@\000\000\200@\000\000\200?\000\000@@\000\000@@\000\000\000@\000\000\000\000\000\000@@\000\000\000@\000\000\200?\000\000\000\000\000\000@@\000\000\000@\000\000@@\000\000\000@\000\000\000@\000\000\000@\000\000\000@\000\000@@\000\000@@\000\000\000@\000\000\200?\000\000\200@\000\000\000\000\000\000\300@\000\000\200@\000\000@@\000\000\000@\000\000\200?\000\000\000@\000\000\200?\000\000\200?\000\000\000@\000\000\000@\000\000\000@\000\000\200?\000\000\200?\000\000@@\000\000\000@\000\000@@\000\000@@\000\000\000@\000\000\200@\000\000\200?\000\000\000@\000\000\200?\000\000\200@\000\000\000@\000\000\000@\000\000\200?\000\000@@\000\000\200?\000\000\000@\000\000\000\000\000\000\000@\000\000\200@\000\000\000@\000\000\000@\000\000\000@\000\000\200@\000\000\200?\000\000@@\000\000\000\000\000\000\000\000\000\000@@\000\000\000@\000\000\200@\000\000\000\000\000\000\000\000\000\000@@\000\000\000A\000\000\200?\000\000\000@\000\000\200?\000\000@@\000\000\000@\000\000\000@\000\000@@\000\000\000@\000\000@@\000\000@@\000\000\000@\000\000\200?\000\000\000@\000\000@@\000\000\240@\000\000\200?\000\000\000\000\000\000\000@\000\000\000@\000\000\200?\000\000\000@\000\000@@\000\000\200@\000\000\000\000\000\000\000@\000\000\200?\000\000\200?\000\000\200?\000\000@@\000\000@@\000\000\000\000\000\000\000@\000\000\200?\000\000@@\000\000\000\000\000\000\000@\000\000@@\000\000\000@\000\000\200@\000\000\000\000\000\000\000@\000\000\000@\000\000\200?\000\000\200?\000\000\200?\000\000@@\000\000\000@\000\000\000@\000\000@@\000\000\000\000\000\000\000@\000\000\000@\000\000\000@\000\000@@\000\000\200?\000\000\000@\000\000\240@\000\000\200?\000\000\200?\000\000\000@\000\000\000@\000\000\000@\000\000\000@\000\000\200?\000\000\200@\000\000\200?\000\000\000@\000\000\000@\000\000@@\000\000\000\000\000\000\200?\000\000\000@\000\000@@\000\000\000\000\000\000\200?\000\000\000@\000\000\000@\000\000\200?\000\000\000@\000\000\200?\000\000\200?\000\000\000\000\000\000\200?\000\000@@\000\000@@\000\000\200?\000\000\000@\000\000@@\000\000\000@\000\000\200?\000\000\000@\000\000\000@\000\000\200?\000\000\200?\000\000\200?\000\000\020A\000\000@@\000\000@@\000\000\200?\000\000\000@\000\000\200?\000\000\200?\000\000\200?\000\000@@\000\000\200?\000\000\000\000\000\000\200?\000\000\200@\000\000\000\000\000\000\200?\000\000\240@\000\000\340@\000\000\200?\000\000@@\000\000\000\000\000\000\200@\000\000\000@\000\000@@\000\000\000\000\000\000\000@\000\000\000@\000\000\200@\000\000@@\000\000@@\000\000\000@\000\000\000@\000\000\000@\000\000\000@\000\000@@\000\000\000@\000\000\200?\000\000\200?\000\000\200@\000\000\240@\000\000\000@\000\000@@\000\000\200?\000\000\200?\000\000\000\000\000\000\300@\000\000\020A\000\000\000\000\000\000\000@\000\000@@\000\000\200?\000\000\200?\000\000\000@\000\000\000@\000\000@@\000\000@@\000\000\000\000\000\000@@\000\000@@\000\000\200?\000\000\000@\000\000\000@\000\000@@\000\000\000@\000\000\000@\000\000\000\000\000\000\000@\000\000\000\000\000\000\200?\000\000\000@\000\000@@\000\000\200@\000\000\200@\000\000@@\000\000\000@\000\000@@\000\000\200?\000\000@@\000\000\000\000\000\000\000\000\000\000\200@\000\000\000@\000\000@@\000\000@@\000\000@@\000\000@@\000\000\000@\000\000@@\000\000\200?\000\000\000@\000\000@@\000\000\000@\000\000\200?\000\000\000@\000\000@@\000\000\200?\000\000\200@\000\000\000@\000\000\000@\000\000\000@\000\000@@\000\000\200@\000\000@@\000\000\000@\000\000\000@\000\000\200?\000\000\200?\000\000@@\000\000\000@\000\000\000@\000\000\000\000\000\000@@\000\000\000@\000\000\000\000\000\000\300@\000\000\200@\000\000@@\000\000\000@\000\000\000@\000\000\000@\000\000\000@\000\000@@\000\000@@\000\000\000@\000\000\000@\000\000@@\000\000\000@\000\000\000@\000\000\000@\000\000\200?\000\000@@\000\000\200?\000\000\000@\000\000@@\000\000\000@\000\000\240@\000\000@@\000\000\000@\000\000\240@\000\000\000\000\000\000\200@\000\000@@\000\000@@\000\000\200?\000\000\200?\000\000@@\000\000\000@\000\000\000@\000\000\000@\000\000\200?\000\000@@\000\000\200?\000\000\000@\000\000\000@\000\000\000@\000\000\000@\000\000\000@\000\000\000@\000\000\200?\000\000\000@\000\000@@\000\000\200?\000\000\200?\000\000\000@\000\000\000@\000\000\000@\000\000\200?\000\000\200@\000\000\000@\000\000\000@\000\000\200?\000\000\000@\000\000\000\000\000\000\000@\000\000\000@\000\000\000@\000\000@@\000\000@@\000\000@@\000\000\200@\000\000\000@\000\000\000@\000\000\000@\000\000\200?\000\000\000@\000\000\000@\000\000\200?\000\000\200?\000\000@@\000\000\000\000\000\000\000@\000\000\200?\000\000\200?\000\000@@\000\000@@\000\000\200?\000\000\200?\000\000\200?\000\000\200@\000\000@@\000\000\000@\000\000\240@\000\000\000@\000\000@@\000\000\000@\000\000@@\000\000\200@\000\000\000@\000\000\000@\000\000\200?\000\000\000@\000\000\000@\000\000@@\000\000\000@\000\000\000@\000\000\200@\000\000\340@\000\000\000@\000\000\200@\000\000\200?\000\000\000@\000\000@@\000\000\200?\000\000\000\000\000\000\200?\000\000\000@\000\000\000@\000\000\000\000\000\000\240@\000\000@@\000\000\000@\000\000\200?\000\000\000\000\000\000\200?\000\000@@\000\000\000@\000\000\000@\000\000\000@\000\000\000@\000\000\000@\000\000@@\000\000\000@\000\000\000@\000\000\000@\000\000\000@\000\000\200@\000\000\000@\000\000@@\000\000\200@\000\000\000@\000\000\200?\000\000\000\000\000\000\200?\000\000\200?\000\000@@\000\000\000@\000\000@@\000\000@@\000\000\000@\000\000\200?\000\000\000@\000\000\200@\000\000\000@\000\000\000\000\000\000\200?\000\000\300@\000\000\000\000\000\000@@\000\000@@\000\000\200?\000\000\000@\000\000@@\000\000@@\000\000\000@\000\000\200?\000\000\000@\000\000\200?\000\000\000\000\000\000\200?\000\000\000@\000\000\000@\000\000\200?\000\000\000@\000\000\000\000\000\000@@\000\000\240@\000\000@@\000\000\240@\000\000\000@\000\000\200@\000\000\000@\000\000\000@\000\000\000\000\000\000\000@\000\000\200?\000\000\200?\000\000\000@\000\000\000@\000\000\000@\000\000\000@\000\000\000\000\000\000@@\000\000\000@\000\000\200@\000\000\000@\000\000\200@\000\000\000\000\000\000\000@\000\000\000A\000\000@@\000\000\000\000\000\000\000\000\000\000\000@\000\000\300@\000\000\000@\000\000@@\000\000\000@\000\000\000@\000\000@@\000\000\200?\000\000@@\000\000@@\000\000\200@\000\000\000@\000\000\200?\000\000\000@\000\000\200?\000\000\000\000\000\000\240@\000\000\000\000\000\000\000@\000\000\000\000\000\000\200?\000\000\000@\000\000\000@\000\000\000@\000\000\200?\000\000\200@\000\000\200?\000\000\200?\000\000\000\000\000\000\000@\000\000\200?\000\000\200?\000\000\200?\000\000\200?\000\000\000@\000\000\200?\000\000@@\000\000\000@\000\000\000@\000\000\000@\000\000\000@\000\000\000@\000\000@@\000\000\000\000\000\000@@\000\000@@\000\000@@\000\000\200?\000\000\000@\000\000\000\000\000\000\000@\000\000\200?\000\000\200?\000\000@@\000\000\000@\000\000\200@\000\000\000@\000\000@@\000\000\000@\000\000@@\000\000\240@\000\000@@\000\000\300@\000\000\000\000\000\000@@\000\000\000@\000\000\000@\000\000\200?\000\000\200?\000\000@@\000\000\200?\000\000\200@\000\000\000@\000\000\000@\000\000\000@\000\000\000@\000\000\000@\000\000\000@\000\000\000@\000\000@@\000\000\200?\000\000\000@\000\000\200?\000\000\200?\000\000@@\000\000@@\000\000\200?\000\000\200?\000\000\000\000\000\000\000\000\000\000\000@\000\000\200?\000\000\000@\000\000\000\000\000\000\000@\000\000\200@\000\000\000@\000\000\000\000\000\000\000\000\000\000\200?\000\000\200@\000\000\000@\000\000\000\000\000\000\000@\000\000\000\000\000\000\000@\000\000\240@\000\000\000\000\000\000\000\000\000\000\000@\000\000\200?\000\000\000@\000\000\200?\000\000@@\000\000\200?\000\000\200@\000\000@@\000\000\200@\000\000\200?\000\000\000@\000\000\200@\000\000\000@\000\000\000@\000\000\000@\000\000\000\000\000\000@@\000\000\200@\000\000\000@\000\000\200?\000\000\200@\000\000\000@\000\000@@\000\000\000\000\000\000\000@\000\000\000@\000\000\200?\000\000\200?\000\000\200@\000\000\200@\000\000\000\000\000\000\000@\000\000\000@\000\000@@\000\000\000@\000\000\000\000\000\000\000@\000\000\240@\000\000\000@\000\000\200@\000\000\000@\000\000\200@\000\000@@\000\000\000@\000\000\000@\000\000\000\000\000\000\000@\000\000@@\000\000@@\000\000\200?\000\000@A\000\000\000@\000\000\000@\000\000\000@\000\000\000\000\000\000\200@\000\000\000@\000\000\200?\000\000\000@\000\000@@\000\000@@\000\000\000@\000\000\200?\000\000\020A\000\000\300@\000\000\000\000\000\000@@\000\000\000@\000\000\200?\000\000\000\000\000\000\000@\000\000\000@\000\000@@\000\000\240@\000\000\000@\000\000@@\000\000@@\000\000\200?\000\000\300@\000\000\000@\000\000\200?\000\000\000@\000\000\200?\000\000\200?\000\000\000@\000\000\200@\000\000@@\000\000\000@\000\000\000@\000\000\000@\000\000\200?\000\000\200@\000\000@@\000\000\000\000\000\000\000\000\000\000\240@\000\000@@\000\000\200?\000\000\200?\000\000\000\000\000\000\200?\000\000\000@\000\000\200?\000\000\200@\000\000\200?\000\000@@\000\000\000@\000\000\000@\000\000@@\000\000\000@\000\000\200?\000\000@@\000\000\000@\000\000\200@\000\000\000\000\000\000\200?\000\000\000@\000\000\000@\000\000\200?\000\000\000@\000\000\000@\000\000\000@\000\000\300@\000\000\200?\000\000\000@\000\000\000@\000\000\000@\000\000@@\000\000@@\000\000\000@\000\000\000@\000\000\000\000\000\000\200?\000\000\000@\000\000\200@\000\000\000@\000\000\000@\000\000\200@\000\000\200?\000\000\000@\000\000\000@\000\000\200@\000\000\200?\000\000\000\000\000\000\000@\000\000\000@\000\000\200?\000\000\000@\000\000\000\000\000\000\200@\000\000\000@\000\000@@\000\000\000\000\000\000\000\000\000\000\200?\000\000\000\000\000\000\000@\000\000\000\000\000\000@@\000\000@@\000\000\000\000\000\000\000@\000\000@@\000\000\200?\000\000\200?\000\000\200@\000\000\000@\000\000\000@\000\000\200?\000\000\000@\000\000\000@\000\000\200@\000\000\000@\000\000\000\000\000\000\000@\000\000\000\000\000\000\000@\000\000\000@\000\000@@\000\000\000@\000\000@@\000\000\000@\000\000\000@\000\000\200@\000\000\200?\000\000\000@\000\000\200?\000\000\000\000\000\000\000@\000\000@@\000\000\000@\000\000\200?\000\000\000\000\000\000@@\000\000@@\000\000@@\000\000\000@\000\000\200?\000\000\000@\000\000\200@\000\000@@\000\000\000@\000\000\200?\000\000@@\000\000\000\000\000\000\000@\000\000\000\000\000\000\200?\000\000\000\000\000\000\000@\000\000\000@\000\000\200@\000\000\000@\000\000@@\000\000\000@\000\000\000\000\000\000\000@\000\000@@\000\000\200?\000\000\000@\000\000\000@\000\000\000@\000\000\000@\000\000\200@\000\000\000@\000\000\000@\000\000@@\000\000\000@\000\000\000@\000\000\200?\000\000\200@\000\000\200?\000\000\220A\000\000\000@\000\000@@\000\000\200?\000\000@@\000\000@@\000\000\000@\000\000\200@\000\000\000\000\000\000\000@\000\000\000\000\000\000\200?\000\000\000@\000\000@@\000\000@@\000\000@@\000\000\000\000\000\000\200@\000\000\200?\000\000\200@\000\000\000@\000\000\000@\000\000\000@\000\000\200@\000\000\200?\000\000\000@\000\000\000@\000\000\200?\000\000\200?\000\000@@\000\000\000@\000\000\000@\000\000@@\000\000@@\000\000\200@\000\000\000@\000\000\200?\000\000\200@\000\000\200?\000\000\200?\000\000\000@\000\000\200?\000\000\200?\000\000\000@\000\000\000\000\000\000\000@\000\000\240@\000\000\200?\000\000\000@\000\000\200?\000\000\000@\000\000\000@\000\000\200?\000\000@@\000\000\300@\000\000\200?\000\000\000@\000\000\000@\000\000\000\000\000\000@@\000\000@@\000\000\240@\000\000@@\000\000\200@\000\000@@\000\000\000@\000\000\000\000\000\000\000@\000\000\000\000\000\000\200@\000\000\000@\000\000\000@\000\000@@\000\000@@\000\000@@\000\000\240@\000\000@@\000\000\000@\000\000\000@\000\000\000@\000\000\000\000\000\000\200?\000\000\200?\000\000\000@\000\000\200@\000\000\000@\000\000\000@\000\000\200?\000\000@@\000\000\000\000\000\000\000@\000\000@@\000\000\200?\000\000\000\000\000\000\000\000\000\000\000\000\000\000\000@\000\000\000@\000\000\200@\000\000@@\000\000@@\000\000@@\000\000@@\000\000@@\000\000\200?\000\000\200?\000\000@@\000\000\000@\000\000\000\000\000\000\200?\000\000\200?\000\000\340@\000\000\000\000\000\000\000@\000\000@@\000\000\200?\000\000@@\000\000\200?\000\000\000@\000\000\000@\000\000\000\000\000\000\000@\000\000\000@\000\000\200?\000\000@@\000\000@@\000\000\000@\000\000\000@\000\000@@\000\000\200?\000\000\000@\000\000\000@\000\000\000@\000\000\000@\000\000\240@\000\000\000@\000\000@@\000\000\000\000\000\000@@\000\000\240@\000\000\000\000\000\000@@\000\000\200@\000\000\200?\000\000\000\000\000\000\000\000\000\000\020A\000\000\200?\000\000\200?\000\000\000@\000\000@@\000\000\200?\000\000\200?\000\000\240@\000\000\000@\000\000\000\000\000\000\200?\000\000\000@\000\000\200?\000\000\000@\000\000\000@\000\000\200@\000\000\000\000\000\000\000@\000\000\000\000\000\000@@\000\000\000@\000\000\000@\000\000\000\000\000\000\240@\000\000\200?\000\000\000@\000\000\020A\000\000\000@\000\000@@\000\000\240@\000\000\000@\000\000\200?\000\000\200?\000\000@@\000\000\200?\000\000\000@\000\000\200?\000\000\000@\000\000\200?\000\000\000@\000\000\200?\000\000\000\000\000\000\000\000\000\000\000@\000\000@@\000\000@@\000\000@@\000\000\200?\000\000\000@\000\000\000@\000\000\000@\000\000\200?\000\000\200?\000\000\200@\000\000\000@\000\000\200?\000\000\300@\000\000\000@\000\000\000@\000\000\000@\000\000\000@\000\000\000@\000\000\000@\000\000\000@\000\000\000@\000\000\200?\000\000\200?\000\000\200?\000\000\200@\000\000\340@\000\000\000@\000\000\000@\000\000@@\000\000@@\000\000\200?\000\000\000\000\000\000\000@\000\000@@\000\000\000@\000\000\000@\000\000\200@\000\000\200?\000\000@@\000\000\000\000\000\000\000\000\000\000\000@\000\000\200?\000\000@@\000\000\000@\000\000\000\000\000\000\000@\000\000@@\000\000\200?\000\000\000\000\000\000\000\000\000\000\200@\000\000\200?\000\000\000@\000\000@@\000\000\200?\000\000@@\000\000\000@\000\000\000\000\000\000@@\000\000@@\000\000\000\000\000\000\200?\000\000\000@\000\000\000\000\000\000\000\000\000\000\200@\000\000@@\000\000\000@\000\000\000@\000\000\000@\000\000\000@\000\000\000\000\000\000\200?\000\000\000@\000\000\000\000\000\000\200?\000\000@@\000\000\000@\000\000\200?\000\000\200@\000\000\000@\000\000\000\000\000\000\200?\000\000\200?\000\000\000@\000\000\240@\000\000@@\000\000\000@\000\000\200?\000\000\200?\000\000\200?\000\000\000\000\000\000\240@\000\000\200@\000\000\000@\000\000\000@\000\000\000@\000\000\000@\000\000@@\000\000\000@\000\000\000\000\000\000\200?\000\000\000@\000\000\200@\000\000\200?\000\000@@\000\000\000@\000\000\000@\000\000\200?\000\000\240@\000\000\200?\000\000@@\000\000\000@\000\000\200?\000\000\000@\000\000@@\000\000\200?\000\000\200?\000\000@@\000\000\000@\000\000\200?\000\000\200?\000\000\200?\000\000\200?\000\000@@\000\000\000@\000\000\000@\000\000@@\000\000\000@\000\000\200?\000\000@@\000\000\200?\000\000\000\000\000\000\000@\000\000\000@\000\000\000\000\000\000\000@\000\000@@\000\000@@\000\000\200?\000\000\200@\000\000\200?\000\000\000@\000\000\000@\000\000\200?\000\000\200?\000\000\000@\000\000@@\000\000\200?\000\000\200?\000\000\000\000\000\000\000@\000\000\000@\000\000\000@\000\000@@\000\000\200?\000\000\200?\000\000\240@\000\000\000@\000\000\000@\000\000\200?\000\000\200?\000\000\200?\000\000@@\000\000\000@\000\000\300@\000\000\000@\000\000@@\000\000\000@\000\000\000@\000\000\000@\000\000@@\000\000\000@\000\000@@\000\000\200?\000\000\200?\000\000@@\000\000\200?\000\000@@\000\000\000@\000\000\200?\000\000\000@\000\000\000\000\000\000\200?\000\000\000@\000\000\000@\000\000\000@\000\000\000\000\000\000\000\000\000\000\200?\000\000\000\000\000\000\000@\000\000\200?\000\000\200?\000\000\000@\000\000\000@\000\000\000@\000\000@@\000\000\000\000\000\000\000@\000\000\000@\000\000\200?\000\000@@\000\000\000@\000\000\200@\000\000\200@\000\000\000@\000\000\200?\000\000\000@\000\000\000@\000\000\000@\000\000@@\000\000\200?\000\000\200?\000\000\200?\000\000\000\000\000\000\000\000\000\000\000\000\000\000\000@\000\000\000\000\000\000\200@\000\000\000@\000\000\240@\000\000\200?\000\000\200?\000\000\000A\000\000\200?\000\000\000\000\000\000\300@\000\000\000@\000\000\000\000\000\000\200?\000\000\200?\000\000@@\000\000\200?\000\000\000@\000\000\000@\000\000@@\000\000\000@\000\000\200?\000\000\000@\000\000\000@\000\000\200@\000\000\000\000\000\000\000\000\000\000\200@\000\000\000\000\000\000\000@\000\000\000@\000\000\000\000\000\000@@\000\000\000@\000\000\000@\000\000\200@\000\000\000\000\000\000\000@\000\000@@\000\000@@\000\000@@\000\000\000\000\000\000\000@\000\000@@\000\000\200?\000\000@@\000\000@@\000\000\000@\000\000\000\000\000\000\000@\000\000\000@\000\000\200@\000\000\200?\000\000\000@\000\000\000\000\000\000\200?\000\000\200?\000\000\000@\000\000\000@\000\000\000@\000\000\000@\000\000\000\000\000\000\000\000\000\000\200?\000\000\200@\000\000\200?\000\000\200?\000\000\200?\000\000\000@\000\000\000@\000\000\200?\000\000\000@\000\000\000@\000\000@@\000\000\000@\000\000\200?\000\000\000\000\000\000\200?\000\000@@\000\000@@\000\000\000@\000\000@@\000\000\000@\000\000\000@\000\000@@\000\000\000\000\000\000\200?\000\000@@\000\000\200?\000\000@@\000\000@@\000\000\200?\000\000@@\000\000\200?\000\000\000@\000\000\000\000\000\000\000@\000\000@@\000\000\200@\000\000\000@\000\000@@\000\000\000\000\000\000\200@\000\000\000@\000\000@@\000\000\200?\000\000\200?\000\000\200@\000\000\000@\000\000@@\000\000\200?\000\000\000@\000\000\000@\000\000\000@\000\000\200?\000\000\000@\000\000\000@\000\000\200?\000\000\200?\000\000\000@\000\000@@\000\000\200@\000\000@@\000\000\000@\000\000\200@\000\000\200?\000\000\200?\000\000@@\000\000\000@\000\000\000\000\000\000\300@\000\000\200@\000\000\300@\000\000\200@\000\000@@\000\000@@\000\000\200?\000\000\300@\000\000\200@\000\000\240@\000\000\000@\000\000\240@\000\000\000@\000\000\200?\000\000\240@\000\000\000\000\000\000\200@\000\000\200@\000\000\000@\000\000@@\000\000\000@\000\000@@\000\000@@\000\000\200?\000\000\000\000\000\000\000\000\000\000\000@\000\000\000@\000\000\000@\000\000@@\000\000\200@\000\000\200?\000\000\000\000\000\000\000@\000\000@@\000\000\000\000\000\000\000@\000\000@@\000\000\000@\000\000\200?\000\000\000@\000\000\000@\000\000\000\000\000\000\000@\000\000\000@\000\000\000\000\000\000\000@\000\000\000@\000\000@@\000\000\200?\000\000\200?\000\000\000@\000\000\000@\000\000\000@\000\000@@\000\000\200?\000\000@@\000\000\000@\000\000@@\000\000\200?\000\000@@\000\000\000@\000\000\000\000\000\000@@\000\000\000@\000\000\200?\000\000@@\000\000\200?\000\000\200@\000\000@@\000\000\200?\000\000\200@\000\000\200?\000\000\000@\000\000\240@\000\000\200?\000\000\200?\000\000\000@\000\000\200@\000\000@@\000\000\000@\000\000\000@\000\000\000@\000\000\240@\000\000\200?\000\000\000\000\000\000\200?\000\000\200?\000\000\200?\000\000\000@\000\000\000\000\000\000\200@\000\000\240@\000\000\200@\000\000@@\000\000\000@\000\000\000\000\000\000@@\000\000\000\000\000\000@@\000\000@@\000\000\000@\000\000\000@\000\000\000@\000\000\000\000\000\000\200?\000\000@@\000\000\000@\000\000\000@\000\000\000@\000\000@@\000\000@@\000\000\000\000\000\000@@\000\000\200?\000\000@@\000\000@@\000\000\000@\000\000\000@\000\000@@\000\000\000\000\000\000\000\000\000\000\000@\000\000\000@\000\000\240@\000\000\000@\000\000\000\000\000\000\000@\000\000\240@\000\000\240@\000\000\200?\000\000@@\000\000\000\000\000\000\000@\000\000\200?\000\000\200?\000\000@@\000\000\200?\000\000\200?\000\000\200@\000\000\000@\000\000\200?\000\000\200?\000\000@@\000\000@@\000\000\200?\000\000\200?\000\000\200@\000\000\000\000\000\000\000@\000\000\000\000\000\000\000@\000\000\200?\000\000\000@\000\000\000@\000\000\000@\000\000\200?\000\000\200?\000\000\000@\000\000\000@\000\000\200?\000\000\200?\000\000\000@\000\000\000\000\000\000\000@\000\000\200?\000\000\200?\000\000\000\000\000\000\000@\000\000@@\000\000\000\000\000\000\200?\000\000\200?\000\000\000@\000\000\200@\000\000@@\000\000@@\000\000@@\000\000\000\000\000\000\000@\000\000\000\000\000\000@@\000\000\000@\000\000\000@\000\000\000@\000\000\000@\000\000\000\000\000\000\200@\000\000\000@\000\000\200?\000\000@@\000\000\000@\000\000@@\000\000\000\000\000\000\000\000\000\000\000@\000\000\000@\000\000\000@\000\000@@\000\000\340@\000\000@@\000\000\000@\000\000\000@\000\000\200?\000\000\000\000\000\000\000\000\000\000@@\000\000@@\000\000\000@\000\000\200@\000\000\000@\000\000\200?\000\000@@\000\000@@\000\000\200?\000\000\000@\000\000\200?\000\000\000@\000\000\000\000\000\000\000\000\000\000\000@\000\000\000@\000\000\200?\000\000\000\000\000\000\200?\000\000\200?\000\000\000@\000\000\240@\000\000\000@\000\000\000@\000\000\240@\000\000\300@\000\000@@\000\000\000@\000\000\200?\000\000\000@\000\000\000@\000\000@@\000\000\000@\000\000\000@\000\000\000\000\000\000\000@\000\000\000@\000\000\200?\000\000\000@\000\000\000@\000\000\000@\000\000\200?\000\000\200?\000\000\200@\000\000\200?\000\000\200?\000\000\200?\000\000\200?\000\000\200?\000\000\000@\000\000\000@\000\000\000@\000\000\000@\000\000@@\000\000\200?\000\000\000\000\000\000\200?\000\000@@\000\000\200?\000\000\240@\000\000\000@\000\000\000\000\000\000\000@\000\000\000@\000\000\000@\000\000@@\000\000\200?\000\000\000@\000\000\200?\000\000\000@\000\000\000@\000\000@@\000\000\000@\000\000\000@\000\000\000\000\000\000\000@\000\000\000@\000\000\000@\000\000\200?\000\000\000@\000\000@@\000\000@@\000\000\000@\000\000@@\000\000\000@\000\000@@\000\000\000\000\000\000\000@\000\000\000\000\000\000\200?\000\000\000@\000\000\000\000\000\000\200?\000\000\300@\000\000@@\000\000\000\000\000\000\000@\000\000\000@\000\000\000@\000\000\000@\000\000\000\000\000\000\200@\000\000\200?\000\000\200?\000\000\000@\000\000\200@\000\000@@\000\000\000\000\000\000\200@\000\000\200@\000\000\000\000\000\000\200?\000\000\240@\000\000\200@\000\000\200@\000\000\200?\000\000\000\000\000\000\000\000\000\000@@\000\000\000@\000\000@@\000\000\000@\000\000@@\000\000\200?\000\000@@\000\000\000@\000\000\000\000\000\000\200?\000\000@@\000\000\000\000\000\000\200?\000\000\000\000\000\000\000\000\000\000@@\000\000@@\000\000@@\000\000\200?\000\000\000\000\000\000\200@\000\000@@\000\000\000@\000\000@@\000\000\000@\000\000\240@\000\000@@\000\000\240@\000\000\200?\000\000\000@\000\000@@\000\000@@\000\000@@\000\000\000@\000\000\200?\000\000\000@\000\000\000\000\000\000\000@\000\000\200?\000\000\000@\000\000\240@\000\000\200?\000\000\000@\000\000\000@\000\000\200?\000\000@@\000\000\000@\000\000\200?\000\000\000@\000\000\000@\000\000\000@\000\000\000@\000\000\200?\000\000\000@\000\000\000\000\000\000\000\000\000\000\000@\000\000\000@\000\000@@\000\000\000@\000\000\000@\000\000\200?\000\000\000@\000\000\000@\000\000\200?\000\000\200?\000\000\000\000\000\000\000@\000\000@@\000\000\200@\000\000\200@\000\000\000@\000\000\200@\000\000\000@\000\000@@\000\000\200@\000\000\200?\000\000\000@\000\000\000@\000\000\200@\000\000@@\000\000@@\000\000\000@\000\000\200?\000\000@@\000\000\000@\000\000\200?\000\000@@\000\000\000@\000\000\000\000\000\000\200?\000\000\000\000\000\000@@\000\000\000\000\000\000\000@\000\000\200?\000\000\200?\000\000\000@\000\000\200?\000\000\000\000\000\000\000@\000\000\000@\000\000\200@\000\000\000@\000\000\000\000\000\000@@\000\000\240@\000\000\200@\000\000\000@\000\000@@\000\000\200?\000\000\000@\000\000\000@\000\000\000@\000\000\200@\000\000\200?\000\000\200?\000\000\240@\000\000\000@\000\000\200?\000\000@@\000\000\000@\000\000\200?\000\000\000\000\000\000\000@\000\000\000@\000\000\000@\000\000\300@\000\000\000\000\000\000\200@\000\000\000\000\000\000\000\000\000\000\000\000\000\000\000@\000\000\000@\000\000\000\000\000\000\200?\000\000\000@\000\000\000@\000\000\000@\000\000\200?\000\000\000@\000\000@@\000\000\000@\000\000\200?\000\000\000@\000\000@@\000\000\000@\000\000\000@\000\000\200?\000\000\240@\000\000@@\000\000\000\000\000\000\000@\000\000\200?\000\000\200?\000\000\200?\000\000@@\000\000\200?\000\000\000\000\000\000\200?\000\000\000@\000\000\000@\000\000@@\000\000\000@\000\000\000@\000\000@@\000\000\000@\000\000\200?\000\000\200@\000\000\000@\000\000\000\000\000\000\240@\000\000\000\000\000\000@@\000\000\200?\000\000@@\000\000\000@\000\000\200?\000\000@@\000\000\000\000\000\000\200@\000\000\200?\000\000@@\000\000@@\000\000\200?\000\000\000\000\000\000\000@\000\000\000\000\000\000\000@\000\000@@\000\000\000@\000\000@@\000\000@@\000\000\200?\000\000\000@\000\000\000@\000\000\000\000\000\000\000@\000\000@@\000\000\000\000\000\000\200@\000\000\200@\000\000\200@\000\000\000@\000\000\200?\000\000\200?\000\000\240@\000\000\000@\000\000\240@\000\000\000@\000\000\000@\000\000\200?\000\000\000@\000\000\000@\000\000\000@\000\000\300@\000\000\000@\000\000\200?\000\000\000@\000\000\200?\000\000\200?\000\000\200?\000\000\000\000\000\000\000\000\000\000\200?\000\000\200?\000\000@@\000\000\000@\000\000@@\000\000@@\000\000@@\000\000\200?\000\000\000@\000\000\200?\000\000\200?\000\000\000\000\000\000\000@\000\000\000\000\000\000\200?\000\000\000@\000\000\200?\000\000\000@\000\000\000@\000\000\000@\000\000\000@\000\000\000@\000\000@@\000\000\000@\000\000\000\000\000\000\200?\000\000\000@\000\000\200@\000\000\000\000\000\000@@\000\000\000@\000\000\000@\000\000@@\000\000\200?\000\000\200?\000\000\000@\000\000@@\000\000\000@\000\000@@\000\000\000@\000\000\200?\000\000\000@\000\000\300@\000\000\000\000\000\000@@\000\000\000\000\000\000@@\000\000\000@\000\000\000@\000\000\000@\000\000\000@\000\000\200?\000\000@@\000\000\200?\000\000\000\000\000\000\200?\000\000\200?\000\000\200@\000\000\000\000\000\000\000@\000\000\200?\000\000\000@\000\000@@\000\000@@\000\000\000@\000\000\000@\000\000\200?\000\000@@\000\000\000@\000\000\000@\000\000\200?\000\000\200@\000\000\240@\000\000\000@\000\000\000\000\000\000\000\000\000\000\000\000\000\000\000@\000\000\000@\000\000\000@\000\000@@\000\000\000@\000\000\200@\000\000@@\000\000\000\000\000\000@@\000\000\000@\000\000\000@\000\000\200@\000\000\000@\000\000\200?\000\000\000@\000\000\200?\000\000\200?\000\000@@\000\000@@\000\000\200?\000\000@@\000\000\200@\000\000@@\000\000\000\000\000\000\240@\000\000\200?\000\000\240@\000\000\200?\000\000\200?\000\000@@\000\000\200?\000\000@@\000\000\000@\000\000@@\000\000\240@\000\000\000\000\000\000\000@\000\000\000\000\000\000\000\000\000\000@@\000\000\200?\000\000\000@\000\000\000@\000\000\000\000\000\000\200?\000\000\200?\000\000\000@\000\000\000@\000\000\200?\000\000\000@\000\000\020A\000\000\000@\000\000@@\000\000\200@\000\000\200?\000\000@@\000\000\000@\000\000\200?\000\000@@\000\000\000@\000\000\000@\000\000\000@\000\000@@\000\000@@\000\000\000@\000\000\200@\000\000\000@\000\000\200@\000\000\000\000\000\000@@\000\000\200@\000\000\000@\000\000\200?\000\000\200?\000\000@@\000\000\200?\000\000\200?\000\000\000@\000\000\200@\000\000\300@\000\000@@\000\000@@\000\000\000@\000\000@@\000\000@@\000\000\000@\000\000\200?\000\000\000\000\000\000\000@\000\000\000@\000\000\000@\000\000\000@\000\000\000@\000\000\200?\000\000\240@\000\000\000\000\000\000\200@\000\000\000@\000\000\000\000\000\000\200?\000\000@@\000\000@@\000\000\000@\000\000\000@\000\000\000\000\000\000@@\000\000\000@\000\000\000@\000\000\000\000\000\000\200?\000\000\200@\000\000\000\000\000\000\000\000\000\000\200?\000\000\200?\000\000\200?\000\000\000@\000\000\200?\000\000\000\000\000\000@@\000\000\200?\000\000\000@\000\000\000\000\000\000\200@\000\000\000@\000\000\000@\000\000\200?\000\000\200?\000\000\000@\000\000@@\000\000\240@\000\000\000\000\000\000\000\000\000\000\200?\000\000\200?\000\000\000@\000\000\200?\000\000\200?\000\000\000@\000\000\000@\000\000\300@\000\000\000\000\000\000\000@\000\000\000@\000\000\000@\000\000\000@\000\000\000@\000\000\200?\000\000@@\000\000\200?\000\000@@\000\000\200?\000\000\200?\000\000\000@\000\000\200?\000\000\000@\000\000\200?\000\000@@\000\000\000\000\000\000\000@\000\000\000@\000\000\000@\000\000\000@\000\000\000\000\000\000\000@\000\000\200?\000\000\200?\000\000\000@\000\000\200?\000\000\000\000\000\000\000@\000\000@@\000\000\200@\000\000\000\000\000\000\200@\000\000@@\000\000\000@\000\000\200?\000\000@@\000\000\000@\000\000\000@\000\000\000@\000\000\000\000\000\000\000@\000\000\000\000\000\000\000\000\000\000\000\000\000\000\200?\000\000\000A\000\000\000@\000\000@@\000\000@@\000\000\000@\000\000\000\000\000\000@@\000\000\000@\000\000\000@\000\000\300@\000\000\000@\000\000\000@\000\000\000@\000\000\200?\000\000\200?\000\000\000\000\000\000\000\000\000\000\000@\000\000@@\000\000\000@\000\000@@\000\000\000@\000\000\000@\000\000@@\000\000\000@\000\000\200?\000\000\200?\000\000\200?\000\000\200?\000\000\200@\000\000\000@\000\000\000@\000\000\200@\000\000\000@\000\000\200?\000\000\200@\000\000\000@\000\000\200?\000\000\000@\000\000@@\000\000\000@\000\000\000@\000\000\200?\000\000\200?\000\000\000\000\000\000@@\000\000\000\000\000\000\200?\000\000\000@\000\000\000@\000\000\000@\000\000\200?\000\000\000@\000\000\000\000\000\000@@\000\000@@\000\000\200?\000\000\000@\000\000\000@\000\000\000@\000\000\200@\000\000\200@\000\000\200?\000\000\000@\000\000\200?\000\000@@"
      }
    }
  }
}
node {
  name: "Const_1"
  op: "Const"
  attr {
    key: "_output_shapes"
    value {
      list {
        shape {
          dim {
            size: 3402
          }
        }
      }
    }
  }
  attr {
    key: "dtype"
    value {
      type: DT_FLOAT
    }
  }
  attr {
    key: "value"
    value {
      tensor {
        dtype: DT_FLOAT
        tensor_shape {
          dim {
            size: 3402
          }
        }
        tensor_content: "\000\000\000\000\000\000\000@\000\000\000@\000\000\200?\000\000\200?\000\000\000@\000\000\000@\000\000\200?\000\000\200?\000\000\000@\000\000\000@\000\000\200?\000\000\200?\000\000\200?\000\000\000@\000\000 @\000\000\200?\000\000\200?\000\000\000@\000\000\000@\000\000\200?\000\000\000@\000\000\000@\000\000@@\000\000\000@\000\000\000@\000\000@@\000\000@@\000\000@@\000\000@@\000\000`@\000\000\200?\000\000\200?\000\000 @\000\000\000@\000\000\200?\000\000\200?\000\000\200?\000\000\200?\000\000\200?\000\000\300?\000\000\200?\000\000\200?\000\000`@\000\000\200?\000\000\000\000\000\000\200?\000\000\200?\000\000\200@\000\000\000\000\000\000\000@\000\000\200?\000\000\200?\000\000\000\000\000\000@@\000\000\000@\000\000\000@\000\000`@\000\000@@\000\000\300?\000\000\000\000\000\000@@\000\000 @\000\000\000@\000\000\200?\000\000\000@\000\000\200?\000\000\000@\000\000\200?\000\000\200?\000\000\000\000\000\000\200?\000\000\200?\000\000\000@\000\000\000@\000\000 @\000\000\000@\000\000\200@\000\000 @\000\000\000\000\000\000\200?\000\000@@\000\000\200?\000\000\200?\000\000\000@\000\000\200?\000\000\200?\000\000@@\000\000\200?\000\000\000@\000\000\200?\000\000@@\000\000@@\000\000\000@\000\000@@\000\000\200?\000\000\200?ff\006@\000\000\000@\000\000\200?\000\000\200?\000\000@@\000\000 @\000\000\000@\000\000\200?\000\000\000@\000\000\000@\000\000\200?\000\000\000@\000\000\200?\000\000\200?\000\000\340@\000\000\000@\000\000\200?\000\000\000@\000\000\200?\000\000\000@\000\000\000\000\000\000\200?\000\000\000@\000\000\000@\000\000\000@\000\000\000@\000\000\000@\000\000@@\000\000`@\000\000\200?\000\000\000@\000\000\000@\000\000\000@\000\000\000@\000\000@@\000\000\200?\000\000\200?\000\000\200?\000\000\000@\000\000\000@\000\000\200?\000\000\200?\000\000\200?\000\000\200?\000\000\200?\000\000\200?\000\000\200?\000\000@@\000\000\200?\000\000\200?\000\000\200?\000\000\000@\000\000\000@\000\000\200?\000\000\000@\000\000\200?\000\000\200?\000\000@@\000\000\000@\000\000\000\000\000\000\300?\000\000\200?\000\000@@\000\000\000@\000\000\000@\000\000\000@\000\000\000@\000\000\000@\000\000\000@\000\000\000@\000\000\000@\000\000\200?\000\000\000@\000\000\200?\000\000\000@\000\000\000@\000\000\200@\000\000\300?\000\000\000@\000\000\200?\000\000\200?\000\000\200?\000\000\300?\000\000\000@\000\000\200?\000\000\200?\000\000\000@\000\000\000@\000\000\000@\000\000@@\000\000 @\000\000\000@\000\000`@\000\000\000@\000\000\000@\000\000\200?\000\000@@\000\000\000@\000\000\200?\000\000\000@\000\000@@\000\000@@\000\000\200?\000\000\200?\000\000\200?\000\000\000@\000\000\000@\000\000\300?\000\000\000@\000\000@@\000\000\000@\000\000\300?\000\000\000@\000\000\200?\000\000@@\000\000\200?\000\000\000@\000\000\200?\000\000\000@\000\000\000@\000\000\200@\000\000\000@\000\000\200?\000\000\300?\000\000\000@\000\000\000\000\000\000\240@\000\000\000@\000\000\000@\000\000\000@\000\000\200?\000\000\000@\000\000\200?\000\000\000@\000\000\000@\000\000\000@\000\000\200?\000\000\340@\000\000\200?\000\000\000@\000\000\000@\000\000 @\000\000\000\000\000\000\200?\000\000\200?\000\000\000@\000\000`@\000\000\200?\000\000\000@\000\000@@\000\000@@\000\000\000@\000\000\200?\000\000\000@\000\000\200?\000\000\300?\000\000\200?\000\000\000@\000\000\000@\000\000\200?\000\000\200?\000\000\200?\000\000\000@\000\000\000@\000\000\200@\000\000 @\000\000\000@\000\000\200?\000\000\000@\000\000\000@\000\000\200?\000\000\200?\000\000\000@\000\000\200?\000\000\200?\000\000\000@\000\000 @\000\000@@\000\000\000@\000\000\000@\000\000@@\000\000\000@\000\000\200?\000\000\200@\000\000\200?\000\000\200?\000\000 @\000\000\000\000\000\000\000@\000\000\000@\000\000\200?\000\000\000@\000\000\000@\000\000\000@\000\000`@\000\000\300?\000\000\000\000\000\000\200@\000\000\240@\000\000\000@\000\000\200?\000\000\200?\000\000\000@\000\000\200?\000\000\200?\000\000\200?\000\000\000@\000\000\300?\000\000\200?\000\000\000@\000\000\200@\000\000\000@\000\000\200?\000\000@@\000\000\200?\000\000@@\000\000`@\000\000\200?\000\000\200@\000\000@@\000\000\200?\000\000\000@\000\000\200@\000\000\000@\000\000\200?\000\000\000@\000\000\000@\000\000@@\000\000\000@\000\000\000@\000\000\000@\000\000\200?\000\000\000@\000\000\220@\000\000\000@\000\000\000\000\000\000\000\000\000\000\000@\000\000\200?\000\000@@\000\000\200?\000\000`@\000\000\200?\000\000\200?\000\000 @\000\000\000@\000\000\000@\000\000\000@\000\000\000@\000\000\200?\000\000@@\000\000\200?\000\000@@\000\000\200@\000\000\200?\000\000\000@\000\000\000@\000\000\000@\000\000\200?\000\000\000@\000\000\000@\000\000\200?\000\000\200?\000\000\000@\000\000\200?\000\000\000@\000\000\200?\000\000\000@\000\000\200?\000\000\000@\000\000\200?\000\000\000@\000\000@@\000\000\000@\000\000\000@\000\000@@\000\000\200?\000\000\200?\000\000@@\000\000\200?\000\000\200?\000\000\200?\000\000\200?\000\000\000@\000\000\200?\000\000`@\000\000\000@\000\000\000@\000\000\000@\000\000\000@\000\000\200?\000\000\200?\000\000\000@\000\000\200?\000\000\200?\000\000\200?\000\000\200?\000\000\000@\000\000\200?\000\000\000@\000\000\000@\000\000@@\000\000\000@\000\000\200?\000\000\200?\000\000\000@\000\000\000@\000\000\300?\000\000`@\000\000\000@\000\000\200?\000\000\000\000\000\000\200?\000\000\200?\000\000\200?\000\000\200?\000\000\300?\000\000\000@\000\000\200@\000\000\000@\000\000\000@\000\000\200?\000\000\000@\000\000\300?\000\000\000@\000\000\200?\000\000\000@\000\000\200?\000\000@@\000\000\200@\000\000\000@\000\000\200?\000\000\000@\000\000\200?\000\000\000@\000\000\300?\000\000\200@\000\000\000@\000\000\200?\000\000\000@\000\000\200?\000\000\000@\000\000\200?\000\000\200?\000\000\200?\000\000\200?\000\000\000@\000\000\200?\000\000\200?\000\000\000\000\000\000\000@\000\000@@\000\000\300?\000\000\200?\000\000\000@\000\000\000@\000\000@@\000\000\000@\000\000\000@\000\000\300?\000\000\000@\000\000\200?\000\000\200?\000\000@@\000\000\200?\000\000\200@\000\000\000@\000\000\200?\000\000\200?\000\000\000@\000\000`@\000\000\200?\000\000\200?\000\000\000@\000\000\000@\000\000\000@\000\000\000\000\000\000\000@\000\000\200?\000\000\200?\000\000\000@\000\000\200?\000\000\200?\000\000\200?\000\000\200?\000\000\300?\000\000\000@\000\000\200?\000\000\300?\000\000@@\000\000\000@\000\000\200?\000\000 @\000\000\200?\000\000\200?\000\000\200?\000\000\220@\000\000`@ff\006@\000\000\240@\000\000@@\000\000\000@\000\000\000@\000\000\300@\000\000@@\000\000\200?\000\000\000@\000\000\200?\000\000\000@\000\000\000@\000\000\200?\000\000\000@\000\000\000@\000\000\000\000\000\000\000@\000\000\000@\000\000\000@\000\000\200?\000\000\240?\000\000 @\000\000\200?\000\000\000@\000\000\200?\000\000\200?\000\000\000@\000\000\200?\000\000\200?\000\000\200?\000\000\200?\000\000\200?\000\000\000@\000\000\200?\000\000\200?\000\000\000\000\000\000\000@\000\000\200?\000\000`@\000\000\300?\000\000\200?\000\000\000@\000\000\200?\000\000\000@\000\000\200@\000\000\000@\000\000\200?\000\000\000@\000\000\200?\000\000\000@\000\000\200?\000\000\000@\000\000\000@\000\000\000@\000\000\000@\000\000\200?\000\000\200?\000\000\000@\000\000\200?\000\000\000@\000\000\200?\000\000\200?\000\000\000@\000\000 @\000\000\200?\000\000\200?\000\000\000@\000\000\000@\000\000\200?\000\000\000\000\000\000\200?\000\000\000@\000\000\000@\000\000\000@\000\000\200?\000\000\000@\000\000\000@\000\000@@\000\000\200?\000\000\000@\000\000\000@\000\000\200?\000\000\200?\000\000\200?\000\000\200?\000\000\200?\000\000\000@\000\000@@\000\000 @\000\000 @\000\000\200?\000\000\000@\000\000\000@\000\000\200?\000\000@@\000\000\000@\000\000\000@\000\000\000@\000\000\000@\000\000 @\000\000\300?\000\000\000@\000\000\200?\000\000\240@\000\000\000@\000\000 @\000\000\000@\000\000\000\000\000\000\000@\000\000@@\000\000\300?\000\000 @\000\000 @\000\000@@\000\000\200?\000\000\200?\000\000\200?\000\000\000@\000\000\000@\000\000\200?\000\000\000@\000\000@@\000\000\200?\000\000\200?\000\000\000\000\000\000\000@\000\000\200?\000\000\000@\000\000\300@\000\000\340@\000\000\000\000\000\000\000@\000\000\000@\000\000\000@\000\000\000@\000\000\200?\000\000\200?\000\000\200?\000\000\200?\000\000\000@\000\000\200?\000\000\000@\000\000\000@\000\000@@\000\000\200?\000\000\000\000\000\000@@\000\000\000@\000\000@@\000\000\200@\000\000\200?\000\000\200?\000\000\200?\000\000\200?\000\000\200?\000\000\200?\000\000\200?\000\000\240@\000\000\000@\000\000\000@\000\000\200?\000\000\000@\000\000\200?\000\000\000@\000\000\000@\000\000\200?\000\000\200?\000\000\000@\000\000@@\000\000\200?\000\000@@\000\000\000@\000\000\200?\000\000\300?\000\000@@\000\000\000@\000\000\200?\000\000\200?\000\000\000@\000\000\200?\000\000\200?\000\000\000@\000\000\200?\000\000\200@\000\000@@\000\000\000@\000\000\000@\000\000\200?\000\000\200?\000\000\200?\000\000\200?\000\000\200?\000\000\000@\000\000@@\000\000\200?\000\000\200?\000\000\200?\000\000\200?\000\000\200?\000\000\000@\000\000\200?\000\000\200?\000\000\000@\000\000\200?\000\000`@\000\000\200?\000\000\000@\000\000\200?\000\000\000@\000\000\200?\000\000\000@\000\000\000@\000\000\200@\000\000\000\000\000\000\200?\000\000\220@\000\000\200?\000\000\000@\000\000@@\000\000\200?\000\000@@\000\000@@\000\000@@\000\000\000@\000\000\000@\000\000\000\000\000\000@@\000\000 @\000\000\000@\000\000\000@\000\000\000@\000\000\000@\000\000\200?\000\000\240@\000\000\000\000\000\000\200?\000\000\200?\000\000\000@\000\000@@\000\000\000@\000\000\000@\000\000\200?\000\000\200?\000\000\200@\000\000\200?\000\000 @\000\000\200?\000\000\200?\000\000\000@\000\000\200?\000\000\200?\000\000\200?\000\000\200?\000\000\000@\000\000@@\000\000@@\000\000\000@\000\000\000\000\000\000\000@\000\000\200?\000\000\000@\000\000\300?\000\000 @\000\000\200?\000\000\240@\000\000\000@\000\000\300?\000\000`@\000\000\000@\000\000\200?\000\000\200?\000\000\200?\000\000\000@\000\000\200@\000\000\200?\000\000\000@\000\000 @\000\000@@\000\000\000@\000\000\300?\000\000\000@\000\000\000@\000\000\200?\000\000\000@\000\000@@\000\000\300?\000\000\000@\000\000\000@\000\000\000@\000\000@@\000\000\200?\000\000\000@\000\000\200?\000\000\000@\000\000\200?\000\000\200?\000\000\200?\000\000 @\000\000\200?\000\000\000@\000\000\200?\000\000\000@\000\000@@\000\000@@\000\000\000@\000\000\000@\000\000\000@\000\000\200?\000\000@@\000\000@@\000\000\200?\000\000\200?\000\000\200?\000\000\000@\000\000\200?\000\000\000@\000\000\200?\000\000\000@\000\000@@\000\000\000@\000\000\200?\000\000\200?\000\000\200?\000\000\000@\000\000\000@\000\000\200?\000\000\240@\000\000\200?\000\000\200?\000\000\000@\000\000\200?\000\000\000\000\000\000\000@\000\000\200?\000\000\000@\000\000\000@\000\000\200@\000\000\300?\000\000\200?\000\000\200?\000\000\000@\000\000\200?\000\000\200?\000\000\300?\000\000\000@\000\000\200?\000\000\200?\000\000\200?\000\000\200?\000\000\200?\000\000`@\000\000\200?\000\000\200?\000\000\000@\000\000\200?\000\000\200?\000\000\200?\000\000\200?\000\000\200?\000\000\000\000\000\000\240@\000\000@@\000\000\000@\000\000\000\000\000\000\000@\000\000\000@\000\000\200?\000\000\200?\000\000\200?\000\000@@\000\000\000\000\000\000\000@\000\000\000\000\000\000\000@\000\000\200?\000\000\200?\000\000\000@\000\000\000\000\000\000\000@\000\000\200?\000\000\000@\000\000\200?\000\000\200?\000\000\200?\000\000@@\000\000\200?\000\000\000@\000\000\000\000\000\000\000@\000\000\000@\000\000`@\000\000\000@\000\000\000@\000\000\000@\000\000\000@\000\000\200?\000\000\200?\000\000\300?\000\000\000@\000\000\000@\000\000\000@\000\000\200?\000\000@@\000\000\200?\000\000\200?\000\000\200?\000\000\200?\000\000\000@\000\000\200?\000\000\200?\000\000\200@\000\000\000@\000\000\200?\000\000\200?\000\000\000@\000\000\200?\000\000\300?\000\000\200?\000\000\200?\000\000\000@\000\000\200?\000\000\000@\000\000\200?33S@\000\000 @\000\000\000@\000\000\200?\000\000\200?\000\000@@\000\000@@\000\000\000@\000\000\000@\000\000@@\000\000\200?\000\000\200?\000\000\200?\000\000\000@\000\000\200?\000\000\200?\000\000\000@\000\000\200?\000\000\200?\000\000\300?\000\000\200?\000\000\200?\000\000\200?\000\000\000\000\000\000\200?\000\000\200?\000\000@@\000\000\200?\000\000\200?\000\000\200?\000\000@@\000\000\000@\000\000\200?\000\000\200@\000\000@@\000\000\200?\000\000\200?\000\000\200?\000\000\000@\000\000\200?\000\000\340@\000\000\200?\000\000\000@\000\000\200?\000\000\200@\000\000@@\000\000\000\000\000\000\000@\000\000\000@\000\000@@\000\000\200?\000\000\200?\000\000@@\000\000\200?\000\000\000@\000\000@@\000\000@@\000\000\200?\000\000\000@\000\000\000@\000\000\200?\000\000`@\000\000\000@\000\000\200?\000\000\000@\000\000\000@\000\000\000@\000\000\000@\000\000\000@\000\000\000@\000\000\000@\000\000\000@\000\000\200?\000\000\200?\000\000\300?\000\000`@\000\000\000\000\000\000\200?\000\000@@\000\000@@\000\000\000@\000\000\000@\000\000 @\000\000\200?\000\000\000@\000\000\000@\000\000\200?\000\000\200?\000\000\000@\000\000\000@\000\000\000@\000\000\000@\000\000\000@\000\000 @\000\000\200?\000\000\200?\000\000\200?\000\000@@\000\000\000@\000\000\000@\000\000\000@\000\000\300?\000\000\000@\000\000\200?\000\000\200@\000\000\000\000\000\000\200?\000\000\000@\000\000`@\000\000\000@\000\000\200@\000\000\000@\000\000\200?\000\000\300?\000\000@@\000\000@@\000\000\200?\000\000\200?\000\000\200?\000\000\200?\000\000\200?\000\000\200?\000\000\000@\000\000\200?\000\000\000@\000\000\000@\000\000\000@\000\000\200?\000\000\000@\000\000\000\000\000\000\200?\000\000 @\000\000\000@\000\000\200?\000\000\200?\000\000\000@\000\000 @\000\000\000@\000\000\000@\000\000\000@\000\000\300?\000\000@@\000\000\000@\000\000\000@\000\000\000@\000\000\000@\000\000\200?\000\000\000@\000\000\000@\000\000\000@\000\000@@\000\000\240@\000\000@@\000\000\200?\000\000`@\000\000\000@\000\000\000@\000\000\200?\000\000\200?\000\000\200?\000\000\200?\000\000\200?\000\000@@\000\000\000@\000\000 @\000\000\200?\000\000\200?\000\000\200?\000\000\200?\000\000\000@\000\000\000@\000\000\200?\000\000\200?\000\000\200?\000\000\200?\000\000\000@\000\000\200?\000\000\000\000\000\000\000@\000\000@@\000\000\200?\000\000 @\000\000\200?\000\000\000@\000\000\000@\000\000\200?\000\000\000@\000\000@@\000\000`@\000\000\000@\000\000\200?\000\000\200?\000\000\000@\000\000\000@\000\000\200?\000\000\200?\000\000\200?\000\000\200?\000\000\200?\000\000 @\000\000\200?\000\000\000\000\000\000\200?\000\000\200?\000\000\000@\000\000\200?\000\000\000@\000\000\000@\000\000 @\000\000\000@\000\000\200?\000\000\000@\000\000\200?\000\000\200?\000\000@@\000\000@@\000\000\000A\000\000\000@\000\000\200?\000\000\200?\000\000 @\000\000@@\000\000\200?\000\000\000@\000\000\200?\000\000\000\000\000\000\200?\000\000 @\000\000\000@\000\000\200?\000\000\200?\000\000\240@\000\000\200?\000\000\000@\000\000\200?\000\000\000@\000\000\000@\000\000\000@\000\000`@\000\000\000@\000\000\000@\000\000\200?\000\000\200?\000\000\000@\000\000\000@\000\000`@\000\000\260@\000\000\000@\000\000 @\000\000\200?\000\000\200?\000\000\000@\000\000\000\000\000\000\000\000\000\000\000@\000\000\000@\000\000\200?\000\000@@\000\000 @\000\000\000@\000\000\000@\000\000\000@\000\000\000@\000\000\000@\000\000\200?\000\000 @\000\000\000@\000\000\000@\000\000\200?\000\000\300@\000\000\000\000\000\000\000@\000\000\000@\000\000@@\000\000\000@\000\000\200?\000\000\000@\000\000\200?\000\000\200?\000\000\000@\000\000\200?\000\000\000@\000\000\200?\000\000\200?\000\000\000@\000\000@@\000\000\200?\000\000\000@\000\000\000@\000\000\000@\000\000\200?\000\000\000@\000\000\200?\000\000\200?\000\000\200?\000\000\000@\000\000\200?\000\000\000@\000\000\200?\000\000\000@\000\000\200?\000\000\000@\000\000\200@\000\000\000@\000\000@@\000\000\000@\000\000\000@\000\000\200?\000\000\200?\000\000\000@\000\000\200?\000\000\200@\000\000\000@\000\000\000@\000\000\200?\000\000\000\000\000\000@@\000\000\240@\000\000\300?\000\000\000@\000\000\200?\000\000\200?\000\000\200?\000\000\200?\000\000\000@\000\000\000@\000\000\000@\000\000\200?\000\000\200?\000\000\200?\000\000\200?\000\000@@\000\000\200@\000\000\300?\000\000\000\000\000\000\200?\000\000\200?\000\000\200?\000\000\200?\000\000\200@\000\000\220@\000\000@@\000\000\000@\000\000\200?\000\000\200?\000\000\200?\000\000\000@\000\000\200?\000\000\000@\000\000\200?\000\000\200?\000\000@@\000\000\000\000\000\000\200?\000\000 @\000\000\000@\000\000@@\000\000\000\000\000\000\000@\000\000@@\000\000\200?\000\000\200?\000\000\300?\000\000`@\000\000\000@\000\000\200?\000\000\200@\000\000\000\000\000\000\200?\000\000\000@\000\000\200?\000\000\000@\000\000\200?\000\000\000@\000\000@@\000\000\200?\000\000\200?\000\000\000@\000\000\000@\000\000\000@\000\000\000@\000\000\200?\000\000\240@\000\000\200?\000\000@@\000\000\000@\000\000\000@\000\000\340@\000\000\200?\000\000\000@\000\000 @\000\000\200?\000\000\200?\000\000\200?\000\000\000@\000\000\200?\000\000\200?\000\000\200?\000\000\200?\000\000\000@\000\000\000@\000\000\000@\000\000@@\000\000\000@\000\000\000@\000\000\000@\000\000\200?\000\000\200?\000\000\000@\000\000\200?\000\000\200?\000\000\200?\000\000\200?\000\000\300@\000\000\200?\000\000\000@\000\000\200?\000\000\000@\000\000\200?\000\000\200?\000\000\200?\000\000 @\000\000\000@\000\000\000@\000\000\000@\000\000`@\000\000\200?\000\000\200?\000\000@@\000\000\000\000\000\000\200?\000\000\000@\000\000\200?\000\000@@\000\000\200?\000\000 @\000\000\000\000\000\000\000@\000\000\000@\000\000 @\000\000 @\000\000\200?\000\000\200?\000\000@@\000\000\000@\000\000\000@\000\000\000@\000\000@@\000\000\200?\000\000\200?\000\000\300?\000\000@@\000\000\000@\000\000\200?\000\000\200?\000\000\200?\000\000\000\000\000\000\260@\000\000\240@\000\000\200?\000\000\000@\000\000\200?\000\000\200?\000\000\200?\000\000\000@\000\000\200?\000\000\000@\000\000@@\000\000\000\000\000\000 @\000\000\300?\000\000\200?\000\000\200?\000\000\000@\000\000\000@\000\000\000@\000\000\000@\000\000\000@\000\000\000@\000\000\000\000\000\000\200?\000\000\200?\000\000@@\000\000@@\000\000@@\000\000\000@\000\000\000@\000\000\200?\000\000\200?\000\000\200@\000\000\200?\000\000\000\000\000\000`@\000\000\000@\000\000\000@\000\000\300?\000\000\200@\000\000\000@\000\000\000@\000\000\200?\000\000\000@\000\000\000@\000\000\300?\000\000\000@\000\000\200?\000\000\000@\000\000\000@\000\000\200?\000\000\200@\000\000\000@\000\000\000@\000\000\000@\000\000\000@\000\000@@\000\000\000@\000\000\200?\000\000\200?\000\000\200?\000\000\200?\000\000\000@\000\000\000@\000\000\200?\000\000@@\000\000\000@\000\000\000@\000\000@@\000\000@@\000\000@@\000\000\000@\000\000\000@\000\000\000@\000\000\000@\000\000\000@\000\000@@\000\000 @\000\000\000@\000\000\200?\000\000\000@\000\000\000@\000\000\200?\000\000\200?\000\000\200?\000\000@@\000\000\200?\000\000\200?\000\000@@\000\000\000@\000\000\200@\000\000\200@\000\000\000@\000\000@@\000\000\200@\000\000`@\000\000\000@\000\000@@\000\000\200?\000\000\200?\000\000\000@\000\000\200?\000\000\200?\000\000\200?\000\000\000@\000\000\200?\000\000\200?\000\000\000@\000\000\000@\000\000\000@\000\000\000@\000\000\000@\000\000\000@\000\000\200?\000\000\000@\000\000\000@\000\000\200?\000\000\200?\000\000\300?\000\000\200?\000\000\200?\000\000\200?\000\000\000@\000\000\000@\000\000\000@\000\000\200?\000\000\200?\000\000\000@\000\000\000@\000\000\000@\000\000\200?\000\000\200?\000\000\020@\000\000\000@\000\000\220@\000\000\000@\000\000\000@\000\000\000@\000\000\200?\000\000\000@\000\000\000@\000\000\200?\000\000\300?\000\000`@\000\000\000@\000\000\000@\000\000\200?\000\000\000@\000\000\200?\000\000 @\000\000\200?\000\000\200?\000\000\200?\000\000\300?\000\000\000@\000\000\000@\000\000\200@\000\000\200?\000\000 @\000\000\200?\000\000\200?\000\000\000@\000\000\000@\000\000\000@\000\000\200?\000\000\000@\000\000\000@\000\000\000@\000\000\000@\000\000\000@\000\000\200@\000\000@@\000\000\000@\000\000\200@\000\000\300?\000\000\200?\000\000\000@\000\000\200?\000\000\200?\000\000\200?\000\000\000@\000\000\000@\000\000\000\000\000\000\220@\000\000\000@\000\000\000@\000\000\200?\000\000\000\000\000\000\200?\000\000\000@\000\000\000\000\000\000\200?\000\000\000@\000\000\000@\000\000\200?\000\000@@\000\000\300?\000\000\000@\000\000\200?\000\000\200?\000\000\000@\000\000 @\000\000@@\000\000@@\000\000\000@\000\000\200?\000\000\200?\000\000\200?\000\000\200?\000\000\000@\000\000\000@\000\000`@\000\000\000@\000\000\200?\000\000\000@\000\000 @\000\000@@\000\000\000@\000\000\200?\000\000\200?\000\000\320@\000\000\200?\000\000@@\000\000\000@\000\000\000@\000\000\200?\000\000@@\000\000@@\000\000\000@\000\000\200?\000\000\200?\000\000\200?\000\000\200?\000\000\200?\000\000\000@\000\000\000@\000\000\200?\000\000@@\000\000\000\000\000\000\000@\000\000\000@\000\000\200?\000\000\200@\000\000\200?\000\000\000@\000\000\200?\000\000\000@\000\000@@\000\000\000@\000\000\200?\000\000\200?\000\000@@\000\000\000@\000\000\000@\000\000\000@\000\000\200?\000\000\200?\000\000\300?\000\000@@\000\000\300?\000\000\220@\000\000\200?\000\000\000@\000\000\200@\000\000@@\000\000\200?\000\000\200?\000\000\000@\000\000@@\000\000\200?\000\000\200?\000\000\200?\000\000\000@\000\000 @\000\000\200?\000\000@@\000\000\000@\000\000@@\000\000\200?\000\000\200?\000\000\000@\000\000\200?\000\000\200?\000\000\000@\000\000\000@\000\000\000@\000\000\200?\000\000\200?\000\000\000@\000\000\200?\000\000\000@\000\000\340?\000\000`@\000\000\200?\000\000\200?\000\000\200?\000\000\000@\000\000\200?\000\000\200?\000\000\200?\000\000\300?\000\000 @\000\000\200?\000\000@@\000\000\200?\000\000\000@\000\000\200?\000\000\000@\000\000\000@\000\000@@\000\000\200?\000\000\000@\000\000\000@\000\000\000@\000\000\200?\000\000\200?\000\000\200?\000\000\200?\000\000\200?\000\000\200?\000\000\000@\000\000\000@\000\000\200@\000\000\000@\000\000\300?\000\000\000@\000\000 @\000\000\300@\000\000 @\000\000\000@\000\000\000@\000\000\000@\000\000\200?\000\000\000@\000\000\200?\000\000\200?\000\000\000@\000\000\000@\000\000@@\000\000 @\000\000\200?\000\000\000@\000\000\000@\000\000\000@\000\000 @\000\000\200?\000\000\000@\000\000\300?\000\000\200?\000\000\200?\000\000\200?\000\000\000@\000\000\000@\000\000\200?\000\000\200?\000\000\000\000\000\000\200?\000\000\000@\000\000\000@\000\000@@\000\000\200?\000\000\000@\000\000\000@\000\000\000@\000\000\200?\000\000\000\000\000\000\200?\000\000@@\000\000\000@\000\000\200?\000\000\000@\000\000\000\000\000\000\200?\000\000\200@\000\000@@\000\000\000\000\000\000@@\000\000\200?\000\000\200?\000\000\200?\000\000\000@\000\000\200?\000\000\000@\000\000\300?\000\000\200@\000\000\200?\000\000\000@\000\000@@\000\000\000@\000\000@@\000\000\200?\000\000\200?\000\000\000@\000\000`@\000\000\000@\000\000\200?\000\000 @\000\000\000@\000\000@@\000\000\000@\000\000@@\000\000\000@\000\000\200?\000\000\200?\000\000\200@\000\000\000@\000\000\200?\000\000\000@\000\000\000@\000\000\200?\000\000\200?\000\000\000\000\000\000\000@\000\000\000@\000\000\000@\000\000 @\000\000\000@\000\000@@\000\000\200@\000\000\200?\000\000\000@\000\000@@\000\000\200?\000\000\000@\000\000\000@\000\000\200?\000\000@@\000\000\200?\000\000\000@\000\000\000@\000\000\000\000\000\000\200@\000\000\300?\000\000\200?\000\000\200?\000\000\300?\000\000\200?\000\000\000@\000\000\000@\000\000\020A\000\000@@\000\000@@\000\000\000@\000\000\000@\000\000\200?\000\000\000\000\000\000\000@\000\000\200?\000\000@@\000\000@@\000\000\000@\000\000\000@\000\000 @\000\000\200?\000\000\300@\000\000\200?\000\000\300?\000\000\000@\000\000\200?\000\000\200?\000\000\000@\000\000@@\000\000\000@\000\000\200?\000\000\000@\000\000\200?\000\000\200?\000\000\200@\000\000\000@\000\000\000@\000\000\200?\000\000\220@\000\000\000@\000\000\200?\000\000\200?\000\000\000\000\000\000\200?\000\000\000@\000\000\200?\000\000\000@\000\000\200?\000\000\000@\000\000\000@\000\000 @\000\000@@\000\000\000@\000\000\200?\000\000\200?\000\000\000@\000\000@@\000\000\000@\000\000\200?\000\000\200?\000\000\200?\000\000\200?\000\000\000@\000\000\000@\000\000\000@\000\000\200@\000\000\200?\000\000 @\000\000@@\000\000@@\000\000\000@\000\000@@\000\000\200?\000\000\200?\000\000\200?\000\000\200?\000\000\000@\000\000@@\000\000\000@\000\000\000@\000\000`@\000\000\000@\000\000\000@\000\000\000@\000\000\000@\000\000\200?\000\000\200?\000\000@@\000\000\000@\000\000\200?\000\000\200?\000\000\200?\000\000\200@\000\000\000@\000\000\000@\000\000\200?\000\000\000\000\000\000\200?\000\000\000\000\000\000\200?\000\000@@\000\000@@\000\000@@\000\000\000@\000\000\000@\000\000\200?\000\000\000@\000\000\200?\000\000\000@\000\000\200?\000\000\200?\000\000\200?\000\000\000@\000\000\200?\000\000@@\000\000\200?\000\000\200?\000\000 @\000\000\000\000\000\000\000@\000\000\000@\000\000@@\000\000\200?\000\000\000@\000\000\000@\000\000\000@\000\000\300?\000\000\200?\000\000\000@\000\000\200?\000\000@@\000\000\000@\000\000\000@\000\000\200?\000\000\200?\000\000\000@\000\000 @\000\000@@\000\000@@\000\000\000@\000\000\200?\000\000\200?\000\000\220@\000\000\200?\000\000\200?\000\000\200?\000\000\200?\000\000\000\000\000\000\000@\000\000@@\000\000\200?\000\000@@\000\000\200?\000\000\300?\000\000@@\000\000\000@\000\000\300?\000\000\000@\000\000\200?\000\000\200?\000\000\000@\000\000\300?\000\000\200?\000\000\200?\000\000\000@\000\000\240?\000\000@@\000\000\200?\000\000\200?\000\000\000\000\000\000\000@\000\000\200?\000\000\200?\000\000`@\000\000\200?\000\000\300@\000\000\000@\000\000\000@\000\000\000@\000\000\200?\000\000@@\000\000\200?\000\000`@\000\000\200@\000\000\200?\000\000\000\000\000\000\200?\000\000\000@\000\000@@\000\000 @\000\000\000@\000\000\000\000\000\000@@\000\000\200?\000\000\000@\000\000\000@\000\000\000@\000\000\000@\000\000@@\000\000\000@\000\000@@\000\000\200?\000\000\200?\000\000\000@\000\000\200?\000\000\000@\000\000\000@\000\000\000@\000\000 @\000\000\200@\000\000\000@\000\000\200?\000\000@@\000\000\200?\000\000\200?\000\000\000@\000\000\200?\000\000\200?\000\000\000@\000\000\200?\000\000\000@\000\000\200@\000\000\200?\000\000\000@\000\000\200?\000\000\200?\000\000\000@\000\000\200?\000\000\200?\000\000\300@\000\000\200?\000\000\200?\000\000\300?\000\000\200?\000\000\000@\000\000@@\000\000\300@\000\000\000@\000\000\000@\000\000\000@\000\000\000@\000\000\200?\000\000\000@\000\000\000\000\000\000\200@\000\000\200?\000\000\000@\000\000\000@\000\000`@\000\000@@\000\000\000@\000\000@@\000\000\000@\000\000\000@\000\000\200?\000\000\200?\000\000\200?\000\000\200?\000\000\000@\000\000\200@\000\000\000@\000\000\000@\000\000\000@\000\000\000@\000\000\200?\000\000\000@\000\000\200?\000\000\200?\000\000\000@\000\000@@\000\000\000@\000\000\200?\000\000\000@\000\000\200@\000\000\020@\000\000@@\000\000@@\000\000@@\000\000\000@\000\000\200?\000\000\200?\000\000\000@\000\000\000@\000\000\000@\000\000\200?\000\000\200?\000\000\240@\000\000\000@\000\000\000@\000\000\000@\000\000\000@\000\000\200?\000\000\200?\000\000\000@\000\000\000@\000\000\000\000\000\000\000@\000\000\200?\000\000\200?\000\000\000@\000\000\300?\000\000\000@\000\000\200?\000\000\000@\000\000\200?\000\000\000@\000\000\000@\000\000\300?\000\000\000@\000\000\200@\000\000\000@\000\000@@\000\000\000@\000\000\000@\000\000@@\000\000@@\000\000\000@\000\000@@\000\000\200?\000\000\200?\000\000@@\000\000\300@\000\000\200?\000\000\200?\000\000\000@\000\000\200?\000\000\200?\000\000\200?\000\000\200@\000\000\000@\000\000\200?\000\000\200?\000\000\000@\000\000\200?\000\000@@\000\000\000@\000\000`@\000\000\000@\000\000\000@\000\000\000\000\000\000\000@\000\000\300?\000\000\000@\000\000@@\000\000\000@\000\000\200?\000\000\200?\000\000\300@\000\000\000@\000\000@@\000\000\200@\000\000\200?\000\000\000@\000\000\200?\000\000\000@\000\000\200?\000\000\000@\000\000\000@\000\000\000@\000\000\300?\000\000\000@\000\000\200?\000\000\000\000\000\000\000\000\000\000\200?\000\000\000@\000\000\200?\000\000\000@\000\000\000\000\000\000\000@\000\000\000@\000\000\000@\000\000\000@\000\000\200?\000\000\000@\000\000\000@\000\000\200?\000\000\300@\000\000\000@\000\000\200?\315\314\214?\000\000\200?\000\000\200?\000\000\200?\000\000\200?\000\000\000@\000\000\200?\000\000\200?\000\000\200?\000\000\000@\000\000@@\000\000\000@\000\000\200?\000\000\000@\000\000@@\000\000\200?\000\000\200@\000\000\200?\000\000\200?\000\000\200?\000\000\000@\000\000\000@\000\000\200?\000\000\300?\000\000\000\000\000\000\200?\000\000\000@\000\000\200?\000\000\000@\000\000\200?\000\000\200?\000\000 @\000\000\300?\000\000\200?\000\000\200?\000\000\200?\000\000@@\000\000\200?\000\000\000@\000\000\000@\000\000\200?\000\000\000@\000\000\200?\000\000\000@\000\000\000@\000\000\200?\000\000\000\000\000\000\200?\000\000\000@\000\000\000\000\000\000\000\000\000\000\200@\000\000\200@\000\000\200?\000\000\200?\000\000\200?\000\000\000@\000\000\200?\000\000\200?\000\000 @\000\000@@\000\000\200?\000\000\000@\000\000 @\000\000\200?\000\000\300?\000\000\000@\000\000\200?\000\000\200?\000\000\300?\000\000\000@\000\000\000@\000\000\200?\000\000@@\000\000\200?\000\000\200?\000\000\200?\000\000\000\000\000\000\200@\000\000\000@\000\000\000@\000\000\000@\000\000\000@\000\000\200?\000\000@@\000\000 @\000\000\000@\000\000\200?\000\000\000@\000\000@@\000\000\000@\000\000\300?\000\000\200?\000\000\200?\000\000\200?\000\000@@\000\000\200?\000\000\200?\000\000\000@\000\000\200?\000\000\000@\000\000\000@\000\000@@\000\000\200?\000\000@@\000\000\200?\000\000\200?\000\000\200?\000\000\200?\000\000\200?\000\000 @\000\000\000@\000\000\200?\000\000\000@\000\000\200?\000\000\200?\000\000\000@\000\000\000@\000\000\000@\000\000\000@\000\000\000@\000\000\000\000\000\000\000@\000\000\300?\000\000@@\000\000\200?\000\000\200@\000\000\200?\000\000\000@\000\000\000@\000\000\200?\000\000\200?\000\000\200?\000\000\000@\000\000\200?\000\000\000@\000\000\200?\000\000\000@\000\000`@\000\000\000@\000\000\200?\000\000\200?\000\000\200?\000\000\200@\000\000\000@\000\000\200?\000\000\000@\000\000\000@\000\000\000@\000\000\000@\000\000\000@\000\000\300@\000\000\200?\000\000\300?\000\000\200?\000\000\000@\000\000\000@\000\000`@\000\000\000@\000\000\000@\000\000\200?\000\000\200?\000\000@@\000\000\300?\000\000@@\000\000\000@\000\000\200?\000\000\000@\000\000@@\000\000\200?\000\000\200?\000\000\000@\000\000\200?\000\000\200?\000\000\200?\000\000\000@\000\000\200@\000\000\000@\000\000\200?\000\000\200?\000\000\000@\000\000\000@\000\000\200?\000\000@@\000\000\000@\000\000\000@\000\000\000@\000\000\200?\000\000\000@\000\000\000@\000\000@@\000\000@@\000\000\000@\000\000\300?\000\000\300?\000\000\200?\000\000\200?\000\000@@\000\000\200?\000\000\300?\000\000\200?\000\000\000\000\000\000@@\000\000\000\000\000\000 @\000\000\200@\000\000\000@\000\000\000@\000\000\000@\000\000\200?\000\000\200?\000\000@@\000\000\200?\000\000\000@\000\000\000\000\000\000\200?\000\000\200?\000\000\200?\000\000\200?\000\000\000@\000\000\200?\000\000\200?\000\000 @\000\000\300?\000\000@@\000\000\200?\000\000\200?\000\000\000@\000\000@@\000\000@@\000\000\000\000\000\000\000@\000\000\000@\000\000\000@\000\000\200?\000\000\200?\000\000\000@\000\000\000@\000\000\200?\000\000@@\000\000@@\000\000 @\000\000 @\000\000\200?\000\000\000@\000\000\000@\000\000\000@\000\000\000@\000\000\000@\000\000\000@\000\000\200?\000\000\000@\000\000\000\000\000\000\200?\000\000\000@\000\000\000@\000\000\200?\000\000\200?\000\000\200?\000\000\200?\000\000\200?\000\000\200?\000\000\000@\000\000\200?\000\000@@\000\000\200?\000\000\000\000\000\000\200?\000\000@@\000\000\300?\000\000\200?\000\000\200?\000\000\200?\000\000\200?\000\000\200?\000\000\000@\000\000\000@\000\000@@\000\000\000@\000\000\200?\000\000\000\000\000\000\200?\000\000@@\000\000\000@\000\000\000\000\000\000@@\000\000\200?\000\000\300?\000\000`@\000\000\200?\000\000\200?\000\000@@\000\000\200?\000\000@@\000\000@@\000\000\000@\000\000\200?\000\000\200?\000\000\000@\000\000\200?\000\000\000@\000\000\000@\000\000\300?\000\000@@\000\000@@\000\000@@\000\000\300@\000\000\000@\000\000\200?\000\000\000@\000\000\200?\000\000\000@\000\000\000@\000\000\000@\000\000\200?\000\000\000@\000\000\000@\000\000\200?\000\000\200?\000\000\200?\000\000\000@\000\000\200?\000\000\200?\000\000\000@\000\000@@\000\000\200@\000\000@@\000\000\000@\000\0000@\000\000\200?\000\000\200?\000\000\000@\000\000\000@\000\000\200?\000\000\240@\000\000`@\000\000\200@\000\000`@\000\000\000@\000\000@@\000\000\000@\000\000\200@\000\000 @\000\000\300?\000\000\000@\000\000`@\000\000\000@\000\000\200?\000\000\200@\000\000\000@\000\000`@\000\000p@\000\000\200?\000\000 @\000\000\000@\000\000@@\000\000\200?\000\000\000\000\000\000\200?\000\000\000@\000\000\000@\000\000\000@\000\000\000@\000\000@@\000\000\000@\000\000\200?\000\000@@\000\000 @\000\000 @\000\000\000@\000\000\000@\000\000`@\000\000\200?\000\000\200?\000\000\000@\000\000\200?\000\000\200?\000\000\000@\000\000 @\000\000\000\000\000\000\000@\000\000\000@\000\000@@\000\000\000@\000\000\200?\000\000@@\000\000\000@\000\000\200?\000\000\000@\000\000\200?\000\000\200?\000\000\000@\000\000@@\000\000\200?\000\000\000@\000\000\000@\000\000\000@\000\000\000@\000\000\000@\000\000\200?\000\000\000@\000\000\200?\000\000\200?\000\000\000@\000\000\200?\000\000@@\000\000\200?\000\000\200?\000\000\200@\000\000\200?\000\000\200?\000\000\200?\000\000@@\000\000@@\000\000\200?\000\000\000@\000\000\000@\000\000@@\000\000\200?\000\000\000\000\000\000\000@\000\000\200?\000\000\200?\000\000@@\000\000\000@\000\000@@\000\000\240@\000\000@@\000\000\200?\000\000\000@\000\000\000@\000\000@@\000\000\000@\000\000@@\000\000 @\000\000\200?\000\000\200?\000\000@@\000\000@@\000\000\200?\000\000\200@\000\000\000@\000\000\000@\000\000\000@\000\000\000@\000\000\000@\000\000\200?\000\000\000@\000\000\200?\000\000\000@\000\000\000@\000\000\200?\000\000\000@\000\000\000@\000\000\200?\000\000\200?\000\000\200?\000\000@@\000\000\000@\000\000\000@\000\000\200?\000\000\000@\000\000\000@\000\000\200@\000\000\000@\000\000\200?\000\000\200?\000\000\200?\000\000\200?\000\000\200?\000\000 @\000\000\200?\000\000\200?\000\000\200@\000\000\000@\000\000\300?\000\000\000@\000\000\000@\000\000\000@\000\000\200?\000\000\200?\000\000\000@\000\000\000\000\000\000\000@\000\000\000\000\000\000\200?\000\000\200?\000\000\200?\000\000\000@\000\000\200?\000\000\200?\000\000\200?\000\000\200?\000\000\000@\000\000\200?\000\000\200?\000\000\300?\000\000\200?\000\000\000@\000\000\200?\000\000\200?\000\000\200?\000\000\000@\000\000\000@\000\000\000\000\000\000\200?\000\000\200?\000\000\200?\000\000@@\000\000\200?\000\000@@\000\000\000@\000\000\000\000\000\000@@\000\000\200?\000\000@@\000\000@@\000\000 @\000\000\200?\000\000\000@\000\000\000@\000\000\000@\000\000\000@\000\000\200?\000\000\000@\000\000\000@\000\000\000@\000\000\000@\000\000\000\000\000\000\000@\000\000\000\000\000\000@@\000\000\000@\000\000\240@\000\000 @\000\000 @\000\000\000@\000\000\200?\000\000@@\000\000\200?\000\000@@\000\000\340?\000\000\000@\000\000\000@\000\000\200?\000\000\200?\000\000@@\000\000\200?\000\000\200?\000\000\200?\000\000\200?\000\000\000@\000\000\000\000\000\000\200?\000\000\200?\000\000\200?\000\000\200?\000\000\200?\000\000\200?\000\000\200?\000\000\000@\000\000\200@\000\000\300?\000\000\200?\000\000\220@\000\000\200@\000\000\000@\000\000\000@\000\000\200?\000\000\000@\000\000\000@\000\000 @\000\000\300?\000\000\200?\000\000\200?\000\000\000@\000\000\000@\000\000\300?\000\000\000@\000\000\000@\000\000\000@\000\000\200?\000\000\300?\000\000@@\000\000\300?\000\000\200?\000\000\200?\000\000\200?\000\000\200?\000\000\200?\000\000@@\000\000\000@\000\000\200?\000\000 @\000\000\200?\000\000\000@\000\000\200?\000\000\200?\000\000\000@\000\000\220@\000\000\200?\000\000\200?\000\000\000\000\000\000\200?\000\000\200?\000\000\000@\000\000 @ff\246?\000\000\200?\000\000\200?\000\000\000@\000\000\000@\000\000\200?\000\000\000@\000\000\200?\000\000\000@\000\000\000@\000\000\200?\000\000\200?\000\000\000@\000\000\000@\000\000 @\000\000\000@\000\000\000@\000\000\000@\000\000\000@\000\000\200?\000\000\200?\000\000\000@\000\000\200?\000\000\000@\000\000\000\000\000\000\000@\000\000@@\000\000\200?\000\000\240@\000\000\200?\000\000\000@\000\000\000@\000\000\000@\000\000\200?\000\000@@\000\000\200?\000\000\000@\000\000\200?\000\000\200@\000\000\000@\000\000\000\000\000\000@@\000\000\000@\000\000\000@\000\000\200?\000\000\240@\000\000@@\000\000\200@\000\000\200?\000\000\000\000\000\000\000\000\000\000\000@\000\000\000@\000\000\000@\000\000\200?\000\000\000@\000\000\200?\000\000 @\000\000\000@\000\000\200?\000\000\200?\000\000\000@\000\000\200?\000\000\300?\000\000@@\000\000\000\000\000\000\000@\000\000\200?\000\000@@\000\000@@\000\000\200?\000\000\000@\000\000\300?\000\000\200?\000\000@@\000\000\200?\000\000\000@\000\000@@\000\000\260@\000\000\200?\000\000\000@\000\000@@\000\000\000@\000\000`@\000\000\000@\000\000\200?\000\000\000@\000\000\200?\000\000\000@\000\000\200?\000\000\200?\000\000@@\000\000\200?\000\000\000@\000\000\200?\000\000\200?\000\000\200?\000\000\200?\000\000\300?\000\000\000@\000\000\000@\000\000@@\000\000\200?\000\000\200?\000\000\200?\000\000\000\000\000\000\000@\000\000\000@\000\000\200?\000\000@@\000\000\200?\000\000\000@\000\000\200?\000\000\000@\000\000 @\000\000\200?\000\000\200?\000\000\000@\000\000\000@\000\000\000@\000\000 @\000\000`@\000\000\200?\000\000\000@\000\000 @\000\000\200?\000\000@@\000\000\200?\000\000\000@\000\000\000@\000\000\200@\000\000\000@\000\000\000@\000\000\200?\000\000\200?\000\000\000@\000\000\000@\000\000\300?\000\000\000@\000\000\000@\000\000\200?\000\000\200?\000\000\200?\000\000\000@\000\000\000\000\000\000@@\000\000\200?\000\000\200?\000\000\200?\000\000\200?\000\000\200?\000\000\200?\000\000\200?\000\000\000@\000\000\200?\000\000\000\000\000\000\000@\000\000\200@\000\000`@\000\000\000@\000\000\000@\000\000\000@\000\000@@\000\000\000@\000\000\000@\000\000\000@\000\000\200?\000\000\200?\000\000\240@\000\000\000@\000\000\200?\000\000\000@\000\000\000@\000\000\200?\000\000\000\000\000\000\000@\000\000\000@\000\000@@\000\000@@\000\000\200?\000\000\200@\000\000\000@\000\000\000\000\000\000\000\000\000\000\000@\000\000\200?\000\000\200?\000\000\200?\000\000\000@\000\000\000@\000\000\000@\000\000\200?\000\000@@\000\000@@\000\000\200?\000\000\200?\000\000\000@\000\000 @\000\000\000@\000\000\000@\000\000\200?\000\000\260@\000\000\000@\000\000\000@\000\000\000@\000\000\200?\000\000\200?\000\000\200?\000\000\000@\000\000\300?\000\000\000@\000\000\200?\000\000 @\000\000\000@\000\000\200?\000\000\000@\000\000\000@\000\000\000@\000\000\000@\000\000\200?\000\000\000@\000\000\000@\000\000\200?\000\000\200@\000\000\200@\000\000\000@\000\000\300?\000\000\000@\000\000\000@\000\000\000@\000\000@@\000\000\000\000\000\000`@\000\000\200?\000\000\000@\000\000\000@\000\000\200?\000\000\200?\000\000\200?\000\000\200?\000\000\200?\000\000\300?\000\000@@\000\000 @\000\000 @\000\000\200?\000\000\200?\000\000\000@\000\000\000\000\000\000\200?\000\000\200@\000\000\200?\000\000 @\000\000 @\000\000\000@\000\000\000@\000\000\200?\000\000\200?\000\000\200@\000\000\200?\000\000@@\000\000\000@\000\000\000@\000\000\200?\000\000\200?\000\000\000@\000\000\000@\000\000\200@\000\000\200?\000\000\200?\000\000\200?\000\000\200?\000\000\000@\000\000\200?\000\000\200?\000\000\000@\000\000\200?\000\000\200?\000\000\200@\000\000\200?\000\000\200@\000\000\000@\000\000\000@\000\000\200?\000\000\000@\000\000\200?\000\000\200?\000\000\000\000\000\000\000@\000\000\200?\000\000\000@\000\000\200?\000\000\200?\000\000\200?\000\000\000@\000\000\000@\000\000\000@\000\000\000@\000\000@@\000\000 @\000\000\000@\000\000\200?\000\000\200?\000\000\300?\000\000\000@\000\000\000@\000\000\200?\000\000\000@\000\000@@\000\000\200?\000\000\200?\000\000\000@\000\000@@\000\000\000@\000\000\000@\000\000\000@\000\000\200?\000\000\200?\000\000\240@\000\000\000@\000\000\000@\000\000\000\000\000\000\000@\000\000\000\000\000\000\000@\000\000\000@\000\000\200?\000\000\000@\000\000\000@\000\000\200?\000\000@@\000\000\200?\000\000\200?\000\000\000@\000\000\200?\000\000\000@\000\000\200?\000\000\000@\000\000\000@\000\000\000@\000\000\000@\000\000\000@\000\000\200?\000\000\200?\000\000\000@\000\000\000@\000\000\300?\000\000\000@\000\000\200@\000\000\000@\000\000\000\000\000\000\200?\000\000\200?\000\000\200?\000\000\000@\000\000\000@\000\000@@\000\000\000@\000\000\000@\000\000 @\000\000\000\000\000\000@@\000\000\000@\000\000\200?\000\000@@\000\000\000@\000\000\200?\000\000\000@\000\000\200?\000\000\200?\000\000\000@\000\000\000@\000\000\200?\000\000@@\000\000@@\000\000\000@\000\000\200?\000\000\200@\000\000\200?\000\000 @\000\000\300?\000\000\300?\000\000\200?\000\000\000@\000\000\000@\000\000\000@\000\000\000\000\000\000\300?\000\000\000@\000\000 @\000\000\000\000\000\000\000@\000\000@@\000\000\200?\000\000\000@\000\000 @\000\000\000\000\000\000\200?\000\000\000@\000\000\200?\000\000\000@\000\000\200?\000\000\300?\000\000\300@\000\000\000@\000\000\000@\000\000\000@\000\000\200?\000\000`@\000\000\200?\000\000\200?\000\000\200?\000\000\000@\000\000\300?\000\000\000@\000\000\000@\000\000\200?\000\000\000@\000\000 @\000\000\000@\000\000\000@\000\000\200?\000\000\200?\000\000\200@\000\000\000@\000\000\200?\000\000\200?\000\000@@\000\000\200?\000\000\200?\000\000\200?\000\000\000@\315\314\214@\000\000\000@\000\000 @\000\000\200?\000\000\000@\000\000\000@\000\000\200?\000\000\200?\000\000\200?\000\000\200?\000\000\000@\000\000\000@\000\000\000@\000\000\200?\000\000\200?\000\000@@\000\000\200?\000\000\200@\000\000\200?\000\000\200?\000\000\200?\000\000\200?\000\000\200?\000\000\000@\000\000\200?\000\000\000@\000\000 @\000\000\000@\000\000\200?\000\000\240@\000\000\200?\000\000\240@\000\000\000@\000\000\200?\000\000\200?\000\000\200?\000\000\200?\000\000\200?\000\000\200?\000\000\000\000\000\000\000@\000\000\200?\000\000\200?\000\000\000@\000\000`@\000\000\200?\000\000\000@\000\000\200?\000\000\200?\000\000\000@\000\000\000@\000\000\240@\000\000\000\000\000\000@@\000\000\200?\000\000\200?\000\000\000@\000\000\200?\000\000\200?\000\000\000@\000\000\200?\000\000@@\000\000\000@\000\000\000@\000\000@@\000\000\000\000\000\000\000@\000\000\000@\000\000\200?\000\000\200@\000\000\000@\000\000\000@\000\000\200?\000\000\200?\000\000\000@\000\000\300?\000\000\000@\000\000\200?\000\000\000@\000\000@@\000\000\200?\000\000\000@\000\000\000@\000\000@@\000\000\200?\000\000\200?\000\000\240?\000\000\200?\000\000\000@\000\000\000@\000\000\000@\000\000\200?\000\000\000@\000\000\000@\000\000\000@\000\000\000@\000\000\300?\000\000@@\000\000\200?\000\000\000@\000\000\000@\000\000\000@\000\000\000@\000\000@@\000\000\000@\000\000\000@\000\000\000\000\000\000\000@\000\000\200?\000\000\300@\000\000\000@\000\000\200?\000\000\000@\000\000\000@\000\000\000@\000\000\000@\000\000\000@\000\000@@\000\000`@\000\000\200?\000\000\000@\000\000\000@\000\000\200?\000\000\200?\000\000\200?\000\000\200?\000\000\000@\000\000\200@\000\000\200?\000\000\000@\000\000\000@\000\000\000@\000\000\000@\000\000\200?\000\000\200?\000\000\000@\000\000\200?\000\000\200?\000\000\000@\000\000\000@\000\000 @\000\000@@\000\000\200?\000\000\200?\000\000@@\000\000\000@\000\000\300?\000\000\000@\000\000\000@\000\000\000@\000\000\200?\000\000\200?\000\000\000@\000\000\000\000\000\000`@\000\000\200?\000\000\000@\000\000\200?\000\000\200?\000\000\000@\000\000\200?\000\000 @\000\000\000\000\000\000 @\000\000\000@\000\000\200?\000\000\200?\000\000\000@\000\000\000@\000\000`@\000\000\000@\000\000\200?\000\000\200?\000\000\200?\000\000 @"
      }
    }
  }
}
node {
  name: "Const_2"
  op: "Const"
  attr {
    key: "_output_shapes"
    value {
      list {
        shape {
          dim {
            size: 3402
          }
        }
      }
    }
  }
  attr {
    key: "dtype"
    value {
      type: DT_FLOAT
    }
  }
  attr {
    key: "value"
    value {
      tensor {
        dtype: DT_FLOAT
        tensor_shape {
          dim {
            size: 3402
          }
        }
